unsigned char model_tflite[] = {
  0x1c, 0x00, 0x00, 0x00, 0x54, 0x46, 0x4c, 0x33, 0x14, 0x00, 0x20, 0x00,
  0x1c, 0x00, 0x18, 0x00, 0x14, 0x00, 0x10, 0x00, 0x0c, 0x00, 0x00, 0x00,
  0x08, 0x00, 0x04, 0x00, 0x14, 0x00, 0x00, 0x00, 0x1c, 0x00, 0x00, 0x00,
  0x94, 0x00, 0x00, 0x00, 0xec, 0x00, 0x00, 0x00, 0xf4, 0x57, 0x00, 0x00,
  0x04, 0x58, 0x00, 0x00, 0x60, 0x5d, 0x00, 0x00, 0x03, 0x00, 0x00, 0x00,
  0x01, 0x00, 0x00, 0x00, 0x10, 0x00, 0x00, 0x00, 0x00, 0x00, 0x0a, 0x00,
  0x10, 0x00, 0x0c, 0x00, 0x08, 0x00, 0x04, 0x00, 0x0a, 0x00, 0x00, 0x00,
  0x0c, 0x00, 0x00, 0x00, 0x1c, 0x00, 0x00, 0x00, 0x38, 0x00, 0x00, 0x00,
  0x0f, 0x00, 0x00, 0x00, 0x73, 0x65, 0x72, 0x76, 0x69, 0x6e, 0x67, 0x5f,
  0x64, 0x65, 0x66, 0x61, 0x75, 0x6c, 0x74, 0x00, 0x01, 0x00, 0x00, 0x00,
  0x04, 0x00, 0x00, 0x00, 0x94, 0xff, 0xff, 0xff, 0x09, 0x00, 0x00, 0x00,
  0x04, 0x00, 0x00, 0x00, 0x07, 0x00, 0x00, 0x00, 0x64, 0x65, 0x6e, 0x73,
  0x65, 0x5f, 0x34, 0x00, 0x01, 0x00, 0x00, 0x00, 0x04, 0x00, 0x00, 0x00,
  0xfe, 0xa7, 0xff, 0xff, 0x04, 0x00, 0x00, 0x00, 0x0f, 0x00, 0x00, 0x00,
  0x66, 0x6c, 0x61, 0x74, 0x74, 0x65, 0x6e, 0x5f, 0x31, 0x5f, 0x69, 0x6e,
  0x70, 0x75, 0x74, 0x00, 0x02, 0x00, 0x00, 0x00, 0x34, 0x00, 0x00, 0x00,
  0x04, 0x00, 0x00, 0x00, 0xdc, 0xff, 0xff, 0xff, 0x0c, 0x00, 0x00, 0x00,
  0x04, 0x00, 0x00, 0x00, 0x13, 0x00, 0x00, 0x00, 0x43, 0x4f, 0x4e, 0x56,
  0x45, 0x52, 0x53, 0x49, 0x4f, 0x4e, 0x5f, 0x4d, 0x45, 0x54, 0x41, 0x44,
  0x41, 0x54, 0x41, 0x00, 0x08, 0x00, 0x0c, 0x00, 0x08, 0x00, 0x04, 0x00,
  0x08, 0x00, 0x00, 0x00, 0x0b, 0x00, 0x00, 0x00, 0x04, 0x00, 0x00, 0x00,
  0x13, 0x00, 0x00, 0x00, 0x6d, 0x69, 0x6e, 0x5f, 0x72, 0x75, 0x6e, 0x74,
  0x69, 0x6d, 0x65, 0x5f, 0x76, 0x65, 0x72, 0x73, 0x69, 0x6f, 0x6e, 0x00,
  0x0d, 0x00, 0x00, 0x00, 0x04, 0x57, 0x00, 0x00, 0xfc, 0x56, 0x00, 0x00,
  0xe0, 0x56, 0x00, 0x00, 0xa8, 0x56, 0x00, 0x00, 0x90, 0x56, 0x00, 0x00,
  0x30, 0x01, 0x00, 0x00, 0xa8, 0x00, 0x00, 0x00, 0xa0, 0x00, 0x00, 0x00,
  0x98, 0x00, 0x00, 0x00, 0x90, 0x00, 0x00, 0x00, 0x88, 0x00, 0x00, 0x00,
  0x68, 0x00, 0x00, 0x00, 0x04, 0x00, 0x00, 0x00, 0xae, 0xa8, 0xff, 0xff,
  0x04, 0x00, 0x00, 0x00, 0x54, 0x00, 0x00, 0x00, 0x0c, 0x00, 0x00, 0x00,
  0x08, 0x00, 0x0e, 0x00, 0x08, 0x00, 0x04, 0x00, 0x08, 0x00, 0x00, 0x00,
  0x10, 0x00, 0x00, 0x00, 0x24, 0x00, 0x00, 0x00, 0x00, 0x00, 0x06, 0x00,
  0x08, 0x00, 0x04, 0x00, 0x06, 0x00, 0x00, 0x00, 0x04, 0x00, 0x00, 0x00,
  0x00, 0x00, 0x00, 0x00, 0x00, 0x00, 0x0a, 0x00, 0x10, 0x00, 0x0c, 0x00,
  0x08, 0x00, 0x04, 0x00, 0x0a, 0x00, 0x00, 0x00, 0x02, 0x00, 0x00, 0x00,
  0x02, 0x00, 0x00, 0x00, 0x04, 0x00, 0x00, 0x00, 0x06, 0x00, 0x00, 0x00,
  0x32, 0x2e, 0x31, 0x33, 0x2e, 0x31, 0x00, 0x00, 0x0e, 0xa9, 0xff, 0xff,
  0x04, 0x00, 0x00, 0x00, 0x10, 0x00, 0x00, 0x00, 0x31, 0x2e, 0x35, 0x2e,
  0x30, 0x00, 0x00, 0x00, 0x00, 0x00, 0x00, 0x00, 0x00, 0x00, 0x00, 0x00,
  0x70, 0xa4, 0xff, 0xff, 0x74, 0xa4, 0xff, 0xff, 0x78, 0xa4, 0xff, 0xff,
  0x7c, 0xa4, 0xff, 0xff, 0x3a, 0xa9, 0xff, 0xff, 0x04, 0x00, 0x00, 0x00,
  0x78, 0x00, 0x00, 0x00, 0x1d, 0xb4, 0x24, 0xbe, 0xf9, 0x1b, 0x2d, 0x3f,
  0x6d, 0x66, 0x21, 0x3e, 0x5e, 0x24, 0xe4, 0xbe, 0xf4, 0xbb, 0xd1, 0x3e,
  0x4c, 0x04, 0x09, 0x3f, 0xc2, 0xf0, 0x09, 0xbf, 0xc8, 0xb5, 0xa2, 0xbd,
  0xd0, 0x82, 0x0e, 0x3d, 0x80, 0x7b, 0xf6, 0xbb, 0x3a, 0xd8, 0xc2, 0xbd,
  0x2f, 0x2e, 0x51, 0x3e, 0xf6, 0xec, 0xfd, 0xbe, 0x0a, 0x05, 0xa5, 0xbe,
  0x7f, 0x6d, 0x38, 0xbf, 0x8a, 0x33, 0x18, 0xbf, 0x63, 0x52, 0x6a, 0xbe,
  0xb6, 0x48, 0xb4, 0xbe, 0xf6, 0x5a, 0xfb, 0x3e, 0x35, 0xc3, 0xfd, 0xbe,
  0x9f, 0x84, 0xf7, 0x3e, 0x4a, 0xdd, 0xc4, 0x3d, 0xbb, 0xca, 0xd7, 0xbe,
  0x1a, 0x5e, 0xdc, 0x3e, 0x49, 0x82, 0x5e, 0x3e, 0x1f, 0xbe, 0x10, 0x3f,
  0x34, 0xc6, 0x02, 0x3f, 0x57, 0xd6, 0x5b, 0x3e, 0x2f, 0x9f, 0xc7, 0xbe,
  0xe0, 0x93, 0xf5, 0xbc, 0xbe, 0xa9, 0xff, 0xff, 0x04, 0x00, 0x00, 0x00,
  0x50, 0x55, 0x00, 0x00, 0xb1, 0x37, 0x17, 0x3b, 0x84, 0x5d, 0xdf, 0xbc,
  0xd8, 0x8e, 0xc1, 0xbd, 0xca, 0x0f, 0xce, 0x3d, 0x71, 0x53, 0x9a, 0x3d,
  0xa9, 0xb5, 0xca, 0xbc, 0xa2, 0x21, 0x3c, 0xbd, 0xd5, 0xcc, 0xac, 0xbd,
  0xa7, 0x7c, 0xa7, 0x3d, 0xd5, 0x06, 0xa4, 0xbd, 0xd5, 0x22, 0x6d, 0x3d,
  0xa7, 0x0f, 0xba, 0x3d, 0x7b, 0xe4, 0x9a, 0xbc, 0x62, 0x9e, 0x1f, 0xbd,
  0x42, 0x52, 0x2b, 0x3d, 0xe4, 0x46, 0x3d, 0xbb, 0x61, 0xe1, 0x48, 0xbd,
  0xd2, 0x8c, 0x4a, 0x3c, 0x5a, 0xd2, 0x35, 0xbd, 0x18, 0xba, 0xb3, 0x3c,
  0xe5, 0x06, 0x26, 0x3d, 0x1e, 0x5f, 0x8b, 0xbd, 0x61, 0xd9, 0x2c, 0x3d,
  0x39, 0x29, 0xa3, 0x3d, 0x9a, 0x1a, 0x95, 0x3d, 0xbb, 0x94, 0xa1, 0xbd,
  0x3e, 0xcf, 0x55, 0x3d, 0xb3, 0x73, 0x6e, 0x3c, 0xf7, 0xd6, 0xa1, 0x3c,
  0x86, 0x8a, 0x4a, 0x3d, 0x7d, 0xd3, 0xc2, 0xbc, 0x63, 0x82, 0x54, 0x3d,
  0x4e, 0xdb, 0x00, 0x3d, 0x5a, 0x20, 0xf5, 0x3b, 0xb2, 0x65, 0x0e, 0xbd,
  0x94, 0xd7, 0xa3, 0x3d, 0x89, 0x34, 0x94, 0x3d, 0x60, 0xa9, 0x97, 0xbd,
  0x87, 0xc4, 0x0e, 0x3c, 0x15, 0xca, 0x40, 0xbc, 0x9a, 0x05, 0x0d, 0xbd,
  0xe2, 0x2b, 0xca, 0x3c, 0x09, 0x36, 0x69, 0xbd, 0x7b, 0xf2, 0x6e, 0xbc,
  0x20, 0x87, 0xbb, 0x3c, 0xd3, 0x6d, 0x34, 0xbd, 0x35, 0x13, 0x85, 0xbd,
  0xe3, 0x81, 0x26, 0x3d, 0xb7, 0x39, 0xcf, 0x3d, 0x8f, 0x21, 0x97, 0x3d,
  0x20, 0xb5, 0x2a, 0x3d, 0x82, 0x17, 0x9b, 0x3d, 0x68, 0xb8, 0xb8, 0xbc,
  0xb6, 0x23, 0x83, 0x3d, 0xc0, 0x1f, 0x27, 0xbd, 0x84, 0xbb, 0xbf, 0xbd,
  0x88, 0x46, 0xd2, 0xbd, 0x69, 0x4d, 0xaf, 0xbd, 0x76, 0x02, 0xca, 0x3d,
  0x41, 0x0d, 0x18, 0x3c, 0x03, 0x21, 0x41, 0xbc, 0x59, 0xa0, 0xc2, 0x3d,
  0xdb, 0x8f, 0x55, 0xbc, 0x9d, 0x14, 0x03, 0xbb, 0x58, 0x27, 0x81, 0xbd,
  0x87, 0xea, 0x26, 0x3c, 0xf9, 0xbb, 0x82, 0xbd, 0xb9, 0x19, 0xac, 0xbd,
  0xb4, 0xfa, 0xd9, 0xbd, 0x87, 0xc9, 0x9f, 0x3d, 0x01, 0xd4, 0x00, 0x3c,
  0x35, 0xb5, 0xd1, 0xbb, 0x93, 0x0d, 0xaa, 0x3d, 0xb0, 0xa1, 0xa2, 0xbd,
  0x96, 0x97, 0x88, 0xbd, 0x28, 0xa2, 0xa7, 0xbb, 0xbf, 0x98, 0xe0, 0x3c,
  0xa7, 0x82, 0xbb, 0x3d, 0xa0, 0x30, 0xc3, 0x3d, 0x49, 0x06, 0x38, 0xbd,
  0x1a, 0x2f, 0x3d, 0xbd, 0xb0, 0xdc, 0x83, 0x3d, 0x00, 0xa9, 0x2e, 0xba,
  0x3e, 0x45, 0x84, 0x3d, 0xc1, 0x34, 0x87, 0x3d, 0x1c, 0x92, 0x32, 0xbb,
  0xcb, 0xe2, 0x12, 0xbc, 0x30, 0xd2, 0x60, 0xbd, 0x1a, 0xe8, 0x3a, 0xbd,
  0xa0, 0x72, 0x5b, 0x3c, 0xf3, 0x29, 0x6a, 0xbb, 0xaf, 0x67, 0x71, 0xbc,
  0x5c, 0x9c, 0x19, 0xbc, 0xa7, 0xbc, 0xd5, 0xbd, 0x13, 0x81, 0x3b, 0xbd,
  0x94, 0xb6, 0x38, 0xbd, 0x63, 0x9d, 0x20, 0x3c, 0xd6, 0xc6, 0x97, 0xbd,
  0x54, 0xd1, 0x89, 0x3c, 0xca, 0xeb, 0x82, 0xbd, 0xa8, 0xa5, 0x0a, 0x3d,
  0x33, 0x8a, 0x75, 0xbd, 0xcf, 0x57, 0x88, 0xbd, 0xc3, 0x0c, 0x99, 0xbd,
  0x47, 0xdb, 0xd1, 0xbc, 0xba, 0x73, 0x9f, 0x3c, 0xb8, 0xc3, 0x43, 0x3d,
  0xcf, 0x8e, 0xb9, 0xbd, 0x30, 0xa4, 0x0d, 0xbd, 0xee, 0x4e, 0xe8, 0xbb,
  0x46, 0x2d, 0xd4, 0xbc, 0xcb, 0x1e, 0x60, 0xbc, 0xff, 0xd8, 0x7f, 0x3d,
  0xbe, 0xab, 0x97, 0x3d, 0x19, 0x12, 0xc7, 0xbd, 0x2f, 0x1e, 0xb0, 0xbd,
  0x4a, 0xb4, 0x1d, 0xbd, 0xdf, 0x1c, 0x8c, 0xbd, 0x75, 0xd4, 0x53, 0xbd,
  0xf4, 0xa8, 0x0a, 0x3a, 0xfd, 0x60, 0x80, 0xbd, 0xe3, 0x43, 0xd9, 0xbd,
  0x98, 0x33, 0x48, 0x3d, 0xec, 0xd9, 0xc0, 0x3c, 0x97, 0x26, 0xd8, 0xbd,
  0xc5, 0xe2, 0x05, 0xbd, 0xef, 0x21, 0xbf, 0x3c, 0x06, 0xd0, 0x7a, 0xbc,
  0x7e, 0x6d, 0xca, 0x3d, 0x1b, 0x91, 0x3f, 0xbc, 0xff, 0xec, 0x9d, 0x3d,
  0x1a, 0x61, 0x83, 0x3c, 0x20, 0x71, 0x37, 0x3d, 0x4b, 0xa7, 0xb6, 0x3d,
  0x37, 0x92, 0x16, 0xbd, 0x75, 0xaf, 0x85, 0xbd, 0x31, 0xae, 0xb0, 0xbd,
  0x4d, 0x9d, 0x9e, 0x3d, 0xdb, 0x48, 0x8d, 0x3c, 0x3d, 0x00, 0xc6, 0x3d,
  0x49, 0x5e, 0x59, 0xbc, 0xc8, 0x71, 0xf9, 0xbb, 0x56, 0x54, 0x26, 0x3c,
  0xa1, 0x90, 0x52, 0x3c, 0x3d, 0x46, 0x65, 0xbd, 0x99, 0x3c, 0xba, 0x3d,
  0xd0, 0xa3, 0x83, 0x3d, 0x25, 0x26, 0xcc, 0xbc, 0xe0, 0x9c, 0x36, 0xbc,
  0xa3, 0x76, 0x26, 0xbd, 0x90, 0xcc, 0x31, 0x3c, 0x23, 0x22, 0x60, 0x3c,
  0x64, 0x74, 0xfd, 0x3a, 0xb5, 0x2e, 0x29, 0x3c, 0x3f, 0x38, 0x85, 0xbd,
  0xfb, 0xfa, 0x3d, 0x3d, 0x32, 0xe9, 0xc8, 0xbd, 0x9a, 0xcc, 0x43, 0xba,
  0x12, 0xbf, 0x85, 0x3d, 0x2a, 0x60, 0xbe, 0xbb, 0x4e, 0xa7, 0x75, 0xba,
  0xc4, 0xff, 0x96, 0x3d, 0x35, 0xdd, 0x2f, 0xbd, 0x30, 0xde, 0x34, 0x3d,
  0x93, 0x02, 0x89, 0xbd, 0x04, 0x01, 0x6a, 0xbd, 0x85, 0x5b, 0x71, 0xbd,
  0xc4, 0x09, 0xae, 0xbd, 0xd1, 0x5f, 0x16, 0x3c, 0xf2, 0x0d, 0x9f, 0x3d,
  0xfe, 0x08, 0xb4, 0x3d, 0x57, 0x13, 0xa2, 0x3d, 0x9d, 0x67, 0x5d, 0xbd,
  0xc7, 0xd3, 0xa4, 0x3d, 0xec, 0xe8, 0xfb, 0xbc, 0x5a, 0x28, 0x2d, 0x3d,
  0x91, 0xcd, 0x12, 0x3d, 0x5a, 0x13, 0x74, 0xbd, 0x82, 0x74, 0xaa, 0x3d,
  0x0a, 0x28, 0x95, 0x3d, 0x52, 0xb0, 0x96, 0x3d, 0x23, 0xf6, 0xcb, 0x3d,
  0x90, 0x5e, 0x27, 0xbc, 0x1c, 0x51, 0x94, 0x3d, 0x9f, 0x2c, 0x3d, 0xbd,
  0xc8, 0xd7, 0xf9, 0xbb, 0xb7, 0xeb, 0x92, 0x3d, 0x6d, 0x94, 0x9d, 0xbc,
  0x85, 0xb4, 0x63, 0x3d, 0x2b, 0x69, 0xc8, 0x3d, 0x03, 0x8c, 0x63, 0x3d,
  0xca, 0xf6, 0x17, 0x3c, 0xdb, 0xaf, 0xb2, 0x3d, 0xd0, 0xe4, 0x86, 0x3d,
  0x37, 0x25, 0x21, 0x3d, 0x03, 0x05, 0xa3, 0xbd, 0xf0, 0x84, 0x4e, 0x3d,
  0xca, 0x95, 0xd6, 0xbd, 0xa1, 0x0d, 0xc1, 0xbd, 0xe8, 0xd2, 0xad, 0x3d,
  0x14, 0xe3, 0x03, 0xbc, 0x65, 0x45, 0x2b, 0xbd, 0x6b, 0x42, 0x39, 0xbd,
  0x6c, 0x98, 0x96, 0xbd, 0x6c, 0xdb, 0xbe, 0xba, 0x7d, 0x17, 0x2c, 0xbd,
  0xab, 0x68, 0x21, 0xbd, 0xbd, 0xa7, 0xf8, 0x3b, 0x94, 0x76, 0xa4, 0xbd,
  0x60, 0x03, 0x7b, 0x3c, 0xd4, 0x22, 0x03, 0x3b, 0x07, 0xea, 0x1d, 0x3d,
  0xf9, 0x59, 0x4a, 0x3d, 0x72, 0x67, 0x19, 0xbd, 0x3d, 0xf1, 0x6b, 0xbd,
  0x1d, 0x21, 0x16, 0xbd, 0xd6, 0x85, 0x33, 0x3d, 0x57, 0x55, 0x0f, 0x3c,
  0xaf, 0x01, 0xb1, 0xbd, 0x68, 0x5f, 0x97, 0xbd, 0xe3, 0x97, 0xa8, 0x3c,
  0xed, 0x05, 0x95, 0xbd, 0xfb, 0x1b, 0x3f, 0xbc, 0x42, 0x1b, 0xb8, 0xbd,
  0x58, 0x32, 0xc3, 0x3d, 0xad, 0x93, 0xa2, 0x3d, 0x5e, 0x10, 0x5d, 0x3c,
  0x10, 0x86, 0xc8, 0x3d, 0x28, 0xb4, 0x57, 0xbd, 0x1e, 0x03, 0xc9, 0xbd,
  0x24, 0x50, 0xb1, 0xbd, 0x11, 0x37, 0x76, 0xbd, 0x83, 0xd7, 0xb3, 0x3d,
  0xfd, 0x72, 0x4e, 0xbd, 0x86, 0x84, 0x7d, 0x3d, 0x49, 0x0e, 0x7c, 0xbc,
  0x88, 0xfe, 0x05, 0xbc, 0x6e, 0x9f, 0x70, 0xbc, 0xc1, 0x17, 0x2e, 0xbd,
  0xb9, 0x67, 0xdc, 0xbd, 0xf8, 0xc5, 0xdd, 0x39, 0x11, 0x9c, 0x09, 0x3d,
  0x60, 0xa7, 0x09, 0xbd, 0xf0, 0xd2, 0x91, 0x3c, 0x10, 0xb0, 0xbd, 0xbd,
  0x1d, 0x1f, 0x13, 0xbc, 0xa9, 0x9b, 0x4c, 0x3d, 0x62, 0x8c, 0x9d, 0xbd,
  0x15, 0x58, 0x7d, 0x3d, 0x5b, 0x7b, 0x01, 0xbd, 0xc0, 0x23, 0xab, 0x3d,
  0x7f, 0x3e, 0xb7, 0x3c, 0x9d, 0x08, 0x06, 0x3d, 0x17, 0x5f, 0xcd, 0xbd,
  0x4c, 0x87, 0x0c, 0xbd, 0x98, 0x9d, 0x6d, 0xbc, 0x7e, 0xae, 0x30, 0x3d,
  0x64, 0xaf, 0xbc, 0x3d, 0xe9, 0x49, 0x28, 0xbd, 0x17, 0x03, 0x05, 0x3c,
  0xed, 0x9e, 0x85, 0xbd, 0x91, 0xa5, 0xe5, 0x3c, 0xcf, 0xb2, 0x5f, 0x3d,
  0x46, 0x5d, 0x11, 0xbd, 0x52, 0xca, 0xc6, 0xbd, 0x37, 0xe8, 0x43, 0xbd,
  0x26, 0x5f, 0xea, 0xbc, 0x27, 0x1c, 0xa1, 0xbd, 0x15, 0x51, 0xbe, 0xbd,
  0x1a, 0xa5, 0x3b, 0xbd, 0x24, 0x45, 0xce, 0xbd, 0xaf, 0x47, 0xd6, 0xbd,
  0xc3, 0xd4, 0x13, 0x3d, 0xcc, 0x39, 0x0c, 0xbd, 0x86, 0xec, 0x02, 0x3d,
  0xbf, 0xd9, 0x9d, 0xbd, 0x86, 0x83, 0x95, 0xbd, 0x7f, 0x4a, 0x95, 0x3b,
  0x5a, 0x74, 0x29, 0xbd, 0xd9, 0x0b, 0xb7, 0x3d, 0x25, 0xa4, 0xc0, 0x3c,
  0x39, 0x96, 0x9d, 0xbd, 0x96, 0xb6, 0x38, 0x3d, 0x5e, 0x9e, 0x0c, 0x3b,
  0xdd, 0xe2, 0x5d, 0x3d, 0x5c, 0xec, 0xe1, 0xbc, 0x55, 0x0b, 0xae, 0x3d,
  0x19, 0x15, 0x89, 0x3c, 0x09, 0xa7, 0x3e, 0x3b, 0x2e, 0x70, 0xc4, 0x3d,
  0xdc, 0x75, 0x09, 0xbd, 0xf5, 0xb2, 0xb1, 0x3d, 0x56, 0xff, 0x9d, 0xbc,
  0x92, 0x27, 0x15, 0xbd, 0x22, 0xd2, 0x87, 0x3d, 0x66, 0x8e, 0xa7, 0xbd,
  0x7a, 0xcc, 0x1b, 0x3d, 0x2a, 0xa4, 0xe2, 0x3b, 0x5b, 0x2a, 0xb4, 0x3d,
  0x41, 0xa3, 0x83, 0x3d, 0xd1, 0x5b, 0x3b, 0xbd, 0xd7, 0x48, 0x89, 0xbd,
  0xe5, 0x11, 0x8a, 0xbd, 0x0e, 0xf8, 0x3e, 0xbd, 0x01, 0x45, 0x8a, 0x3c,
  0x89, 0x2d, 0x91, 0xbd, 0xb4, 0x44, 0x8c, 0x3d, 0xee, 0x5e, 0x89, 0xbd,
  0xb3, 0x95, 0xb7, 0xbb, 0xb6, 0xe0, 0x46, 0xbd, 0x22, 0x0d, 0x75, 0xbc,
  0x32, 0xbf, 0x91, 0xbd, 0x35, 0x32, 0xbb, 0xbd, 0x17, 0x71, 0xc3, 0x3d,
  0xb9, 0x49, 0xba, 0x3d, 0x56, 0x19, 0xad, 0x3b, 0x57, 0xa2, 0x83, 0x3d,
  0x9d, 0xd5, 0x60, 0xbd, 0x2e, 0x12, 0xc5, 0x3d, 0xec, 0x33, 0x88, 0x3d,
  0x64, 0xb6, 0x88, 0x3d, 0x52, 0x73, 0xab, 0x3b, 0x2e, 0xe3, 0xcf, 0x3c,
  0xc9, 0x4d, 0x79, 0x3d, 0x86, 0xd5, 0x1a, 0xbd, 0x35, 0x7b, 0x62, 0xbd,
  0xa4, 0x6c, 0x85, 0x3d, 0x8b, 0x41, 0x3b, 0xbd, 0x0d, 0xfc, 0xab, 0x3d,
  0xdf, 0xe4, 0x93, 0xbd, 0xe1, 0xb8, 0xad, 0xbc, 0xe1, 0x19, 0x07, 0xbd,
  0x94, 0x39, 0x39, 0x3d, 0x38, 0xd9, 0x3c, 0x3d, 0x3c, 0x7c, 0x56, 0x3d,
  0x6a, 0xaf, 0x3a, 0xbc, 0x2d, 0xb9, 0xb6, 0xbd, 0xde, 0x28, 0x3a, 0x3b,
  0x7a, 0xbc, 0xd6, 0xbd, 0x51, 0x13, 0xcd, 0xbd, 0x80, 0x45, 0x30, 0xbb,
  0x75, 0xb5, 0xa8, 0x3d, 0x4a, 0x21, 0x15, 0x3d, 0xf3, 0xa4, 0x84, 0xbd,
  0xea, 0xd4, 0xf6, 0xbc, 0x94, 0x52, 0x86, 0xbc, 0xb2, 0xdb, 0x9e, 0xbd,
  0xe6, 0x37, 0x41, 0x3d, 0xc5, 0xa0, 0xe6, 0x3c, 0x88, 0x75, 0x5c, 0xbd,
  0x71, 0x00, 0x9a, 0xbc, 0x41, 0xde, 0x24, 0x3d, 0xfd, 0x1f, 0x0c, 0x3d,
  0xa5, 0xb0, 0xd5, 0x3c, 0x2e, 0xb6, 0xa0, 0x3d, 0xcd, 0xf1, 0x07, 0x3d,
  0x3c, 0x3c, 0x35, 0x3d, 0x58, 0x36, 0xfd, 0xbb, 0xab, 0xe7, 0x88, 0xbd,
  0xe0, 0x85, 0x9a, 0x3d, 0x70, 0xe2, 0x72, 0x3d, 0x15, 0xa8, 0x16, 0xbc,
  0x0e, 0x51, 0xb6, 0x3d, 0x96, 0xbb, 0x19, 0x3d, 0x81, 0xba, 0xff, 0x3c,
  0x6e, 0x34, 0xbf, 0x3c, 0x12, 0xa3, 0x92, 0xbd, 0xdc, 0x19, 0x0a, 0xbc,
  0x89, 0xe1, 0x48, 0xbd, 0x36, 0xfb, 0x12, 0xbd, 0xac, 0x86, 0x98, 0x3c,
  0xbf, 0x12, 0xb9, 0x3c, 0xa0, 0xe9, 0xbe, 0x3c, 0xa0, 0xe7, 0xb4, 0xbd,
  0x49, 0xed, 0x9c, 0x3d, 0x48, 0x93, 0x46, 0x3d, 0x6f, 0x23, 0xeb, 0xbc,
  0x42, 0x79, 0xcd, 0x3c, 0x5b, 0x46, 0xae, 0x3d, 0x39, 0x15, 0x9c, 0xbc,
  0x8c, 0x27, 0xc3, 0xbd, 0x86, 0x92, 0xa7, 0xbd, 0xbe, 0x95, 0xa9, 0xbd,
  0x9c, 0x22, 0x9d, 0x3d, 0xc0, 0x08, 0xe8, 0xbc, 0x2f, 0x63, 0x99, 0x3d,
  0xb3, 0xf0, 0xc2, 0xbd, 0x24, 0x0b, 0x64, 0xbd, 0xe1, 0x60, 0xc4, 0xbc,
  0x4d, 0xf1, 0x9d, 0xbd, 0x6a, 0xe1, 0x97, 0x3d, 0x1b, 0x45, 0xfe, 0x3a,
  0x25, 0x48, 0x99, 0xbd, 0x87, 0xfb, 0x27, 0xbd, 0x03, 0x81, 0x2c, 0x3c,
  0x6b, 0x05, 0xc7, 0xbc, 0x5f, 0x3f, 0x9c, 0xbc, 0x1e, 0x8f, 0x9c, 0xbd,
  0x75, 0xf4, 0xc0, 0xbd, 0x88, 0x7e, 0xb6, 0x3d, 0xf5, 0x48, 0xa4, 0xbd,
  0xb1, 0xa9, 0x81, 0xbd, 0x7c, 0x31, 0x4b, 0x3d, 0x4c, 0xff, 0x2a, 0x3d,
  0xd0, 0x6a, 0x2d, 0xbd, 0x58, 0xe8, 0x8d, 0xbc, 0x89, 0x25, 0x75, 0x3c,
  0xfe, 0x28, 0xc7, 0xbc, 0x37, 0xde, 0x73, 0xbd, 0xd4, 0xe6, 0x38, 0x3d,
  0x6a, 0x5f, 0xaa, 0x3d, 0xcb, 0xac, 0x85, 0xbd, 0x52, 0x7f, 0xba, 0x3d,
  0x5c, 0x5b, 0xa8, 0x3c, 0xc5, 0xd1, 0x45, 0x3c, 0x4e, 0xcb, 0x34, 0xbd,
  0x5e, 0x93, 0x9b, 0x3d, 0xd6, 0xc5, 0x61, 0xbd, 0x61, 0x3d, 0xb8, 0x3c,
  0x88, 0x36, 0xc0, 0xbc, 0x2d, 0x9e, 0x9f, 0xbd, 0xba, 0x33, 0x58, 0x3d,
  0x90, 0x1c, 0x1e, 0xbd, 0x3e, 0x2d, 0xd5, 0xbc, 0xd1, 0xde, 0x94, 0x3d,
  0xd7, 0x32, 0x43, 0xbd, 0x64, 0x7f, 0x82, 0xbd, 0xe3, 0x62, 0x9d, 0xbd,
  0x30, 0x9b, 0xb5, 0x3d, 0x92, 0xe8, 0x25, 0x3c, 0x35, 0xc3, 0x91, 0xbd,
  0x63, 0x4d, 0x48, 0x3d, 0x59, 0xf1, 0x2f, 0x3d, 0x30, 0x99, 0x35, 0x3d,
  0x55, 0xf0, 0x70, 0xbd, 0x25, 0xb3, 0x94, 0xbd, 0x3d, 0xf6, 0x99, 0xbd,
  0x72, 0x22, 0xc4, 0x3d, 0xfd, 0xe7, 0x40, 0xbc, 0xfd, 0xd4, 0x84, 0x3d,
  0x56, 0x85, 0x2f, 0x3c, 0x76, 0x4c, 0xb4, 0xbd, 0xf5, 0xab, 0xd7, 0x3c,
  0x0f, 0x5a, 0x8e, 0x3d, 0x4d, 0xf9, 0x0e, 0x3d, 0x8d, 0xd7, 0x1c, 0xbd,
  0x5f, 0x71, 0x4a, 0x3c, 0x00, 0x08, 0xe0, 0x3c, 0x82, 0x44, 0x7d, 0x3a,
  0x63, 0x87, 0x7d, 0xbd, 0xba, 0x40, 0x57, 0xbd, 0x4b, 0x18, 0xc2, 0x3d,
  0xc1, 0xbc, 0x80, 0x3d, 0x82, 0x52, 0x7c, 0x3d, 0x64, 0x4e, 0xa4, 0x3d,
  0xff, 0x23, 0xf5, 0x3c, 0xef, 0x30, 0x97, 0xbd, 0xe8, 0xeb, 0x60, 0xbd,
  0xb4, 0x3c, 0xaf, 0xbd, 0xa9, 0x5a, 0xc5, 0x3d, 0xc8, 0x09, 0xac, 0x3d,
  0x7f, 0xce, 0x1a, 0xbd, 0xde, 0xfa, 0xc0, 0xbd, 0x4b, 0x79, 0x75, 0x3d,
  0x57, 0x54, 0xb8, 0xbd, 0x71, 0x50, 0xc2, 0x3c, 0xb5, 0x79, 0x9c, 0x3d,
  0x17, 0x38, 0xc5, 0xbd, 0x87, 0x5c, 0x3e, 0xbd, 0xfc, 0x4a, 0x70, 0x3d,
  0x22, 0xd1, 0x2c, 0x3d, 0xfd, 0x51, 0xb7, 0x3b, 0x64, 0x1c, 0xa9, 0x3d,
  0xcd, 0x4c, 0x5a, 0xbd, 0xee, 0x6a, 0xb3, 0x3d, 0xa7, 0x0f, 0x8a, 0xbd,
  0x66, 0x94, 0x8f, 0xbd, 0x71, 0x55, 0xa2, 0x3d, 0xdf, 0xf0, 0x0c, 0xbb,
  0x50, 0xdc, 0x53, 0xbd, 0x6a, 0x1e, 0x9e, 0x3d, 0xf2, 0x28, 0x5a, 0xbd,
  0x50, 0xc5, 0xbd, 0x3d, 0x61, 0xd3, 0x19, 0x3d, 0x83, 0x01, 0xcc, 0xbd,
  0x23, 0xe6, 0xeb, 0xbc, 0xc0, 0x89, 0x85, 0xbd, 0x9e, 0xf5, 0x58, 0x3d,
  0x05, 0x77, 0xbf, 0x3d, 0x2c, 0xf1, 0xa7, 0xbc, 0xb9, 0xb7, 0xd5, 0xbd,
  0xf0, 0x86, 0x64, 0xbc, 0x02, 0x02, 0x12, 0x3d, 0x8f, 0x78, 0xb7, 0xbd,
  0x77, 0xb5, 0x8c, 0xbd, 0xb6, 0x5d, 0xd9, 0x3b, 0x64, 0x13, 0xe5, 0xbc,
  0x3f, 0x55, 0x9e, 0xbd, 0xd7, 0xa2, 0x62, 0xbd, 0x7c, 0x9f, 0xc2, 0xbd,
  0xc3, 0xb0, 0xad, 0x3d, 0x6a, 0xc9, 0x60, 0x3d, 0x51, 0xf7, 0xbe, 0x3d,
  0x99, 0xc5, 0x9c, 0xbb, 0x43, 0xd7, 0x35, 0xbd, 0xe5, 0x94, 0x93, 0xbd,
  0x7d, 0x29, 0x0d, 0x3c, 0xe2, 0x19, 0x22, 0x3c, 0x07, 0xe1, 0x06, 0xbd,
  0xc1, 0x22, 0x82, 0xbd, 0xcb, 0x60, 0x13, 0xbd, 0xd2, 0x5d, 0x3d, 0x3d,
  0x7f, 0x6f, 0x9c, 0x3d, 0xfd, 0x7d, 0xcc, 0xbc, 0x95, 0x2b, 0x24, 0x3b,
  0x3c, 0xdf, 0xa1, 0xbd, 0x04, 0x3f, 0xa4, 0x3d, 0x00, 0x97, 0x9b, 0x3c,
  0xca, 0x2e, 0x99, 0xbc, 0xa6, 0x5d, 0xf3, 0xbc, 0xc4, 0x11, 0x53, 0xbd,
  0x2b, 0xc0, 0xe0, 0x3c, 0x46, 0xfc, 0xad, 0xbc, 0x01, 0xdb, 0xaa, 0xbd,
  0x77, 0x91, 0x87, 0xbd, 0x8b, 0x6e, 0x5e, 0xbd, 0x45, 0x92, 0x92, 0xbd,
  0xa6, 0xdf, 0x72, 0xbd, 0x31, 0x9f, 0x8a, 0x3b, 0xc3, 0x1b, 0x8e, 0x3d,
  0x55, 0x93, 0x46, 0x3d, 0xa1, 0x1b, 0xc6, 0xbd, 0xa5, 0x90, 0xad, 0xbd,
  0xdf, 0x33, 0xc5, 0xbd, 0x3f, 0x5d, 0x8f, 0x3d, 0xe1, 0x1f, 0xad, 0xbd,
  0x97, 0x37, 0xca, 0xbd, 0x74, 0x97, 0x92, 0x39, 0xa8, 0xe2, 0x1b, 0xbd,
  0x3b, 0x32, 0x2e, 0xbb, 0x6a, 0x71, 0xb9, 0x3b, 0xa8, 0x96, 0xa5, 0xbc,
  0xa1, 0x64, 0x16, 0xbc, 0x94, 0x4e, 0x50, 0x3d, 0x75, 0x60, 0x32, 0x3d,
  0xf9, 0xa6, 0x63, 0x3c, 0x7f, 0x66, 0xb1, 0xbd, 0x8a, 0xf6, 0x19, 0x3c,
  0xda, 0xdc, 0x0c, 0xbd, 0xcd, 0xd8, 0xd4, 0xbd, 0x84, 0x3f, 0x8c, 0xbd,
  0x2e, 0x98, 0xbb, 0xbd, 0xbd, 0x4d, 0xe7, 0xbd, 0xfb, 0x9b, 0x06, 0xbe,
  0x1f, 0x53, 0x16, 0x3d, 0x38, 0x01, 0x7d, 0x3c, 0x7a, 0x7d, 0x16, 0xbe,
  0x63, 0x33, 0x28, 0x3b, 0x71, 0xbe, 0x8b, 0xbd, 0x16, 0x1d, 0x75, 0xbc,
  0x05, 0x91, 0x6d, 0x3d, 0x09, 0x50, 0x16, 0x3e, 0x96, 0xb0, 0x4a, 0xbe,
  0xae, 0x3a, 0x20, 0x3d, 0x91, 0xbe, 0xde, 0x3b, 0x70, 0xd9, 0xd5, 0xbc,
  0xe6, 0x36, 0x96, 0xbd, 0x2d, 0x51, 0xfb, 0x3d, 0xef, 0x3f, 0x22, 0xbe,
  0x8e, 0x07, 0x32, 0xbd, 0x34, 0xa8, 0x84, 0x3d, 0x8f, 0x11, 0x0d, 0xbe,
  0x76, 0x71, 0xa8, 0x3d, 0x75, 0x97, 0x12, 0x3e, 0xa6, 0x19, 0xbb, 0xbd,
  0xe4, 0xf3, 0x1f, 0x3d, 0x8b, 0xdd, 0x19, 0x3e, 0x7b, 0x32, 0x38, 0xbd,
  0x35, 0x44, 0x11, 0x3d, 0xdf, 0x71, 0x46, 0x3d, 0x71, 0x89, 0x52, 0xbe,
  0xd8, 0x79, 0xc7, 0x3d, 0x2d, 0x41, 0x33, 0x3d, 0x25, 0x40, 0x02, 0xbd,
  0x90, 0x80, 0x59, 0xbd, 0x2a, 0x83, 0xb2, 0x3d, 0x99, 0x6f, 0x47, 0xbe,
  0x2d, 0xe6, 0xcd, 0x3d, 0x8b, 0x2e, 0xc0, 0x3c, 0x7f, 0x50, 0x1f, 0xbe,
  0xcd, 0x91, 0x65, 0xbd, 0x71, 0x7f, 0xcc, 0x3d, 0x64, 0xea, 0x8a, 0xbd,
  0x24, 0x63, 0xe1, 0x3d, 0x2f, 0xbd, 0xa2, 0xbc, 0x44, 0x29, 0x2d, 0xbe,
  0x8e, 0x4c, 0x5e, 0x3d, 0x29, 0x00, 0x60, 0x3d, 0x4e, 0xc5, 0xe7, 0xbd,
  0xbe, 0x82, 0x46, 0xbd, 0xd2, 0x56, 0x81, 0xbc, 0x8a, 0xe7, 0x46, 0xbc,
  0xfa, 0x7d, 0xe9, 0x3d, 0x69, 0x99, 0x8d, 0x3c, 0x54, 0xf8, 0xb6, 0xbd,
  0xae, 0xb7, 0xcb, 0x3c, 0xf1, 0x93, 0xd5, 0x3d, 0x40, 0x88, 0x93, 0xbd,
  0x51, 0xae, 0x13, 0x3e, 0xa6, 0xd3, 0x82, 0x3d, 0x70, 0x49, 0xfb, 0xbd,
  0xcd, 0x34, 0x6f, 0x3d, 0x23, 0x1b, 0x1c, 0x3d, 0x8f, 0xff, 0x3b, 0xbe,
  0x74, 0x4a, 0x93, 0x3c, 0x29, 0x3a, 0xd1, 0x3d, 0x9d, 0x73, 0xea, 0xbd,
  0x10, 0x25, 0xac, 0x3d, 0xfe, 0xd7, 0x2a, 0xbd, 0xab, 0x2e, 0x25, 0xbe,
  0x05, 0xd9, 0x01, 0x3e, 0xd7, 0xbd, 0x99, 0xbd, 0x0a, 0x17, 0x27, 0xbe,
  0x31, 0x71, 0x30, 0x3a, 0x41, 0x76, 0x91, 0x3d, 0x48, 0xe9, 0x17, 0x3c,
  0xb8, 0x5b, 0x8b, 0x3c, 0xd4, 0xa1, 0x10, 0xbc, 0x18, 0x21, 0x65, 0xbd,
  0xc2, 0xa1, 0xb7, 0x3d, 0x02, 0x98, 0x86, 0xbd, 0xff, 0xf9, 0xb8, 0xbc,
  0xee, 0x7f, 0x8a, 0x3d, 0x5b, 0x21, 0xa8, 0x3b, 0x52, 0xda, 0xd0, 0x3d,
  0x28, 0xde, 0xd6, 0x3d, 0xc8, 0x74, 0x85, 0x3d, 0x92, 0x45, 0xa1, 0xbd,
  0x13, 0xf4, 0x8b, 0xbd, 0x65, 0x20, 0x69, 0x3d, 0xef, 0x11, 0x39, 0x3d,
  0xa7, 0xf7, 0xa0, 0x3d, 0xb8, 0x12, 0x94, 0x3d, 0x94, 0x2b, 0x20, 0xbd,
  0xaf, 0xa8, 0x9d, 0xbc, 0xa0, 0x19, 0x9a, 0xbd, 0x1e, 0xac, 0xab, 0x3d,
  0x9a, 0xe4, 0xa8, 0x3a, 0x51, 0xf6, 0xc4, 0x3b, 0x16, 0xe0, 0x34, 0xbd,
  0xd0, 0xc7, 0xf0, 0x3b, 0x33, 0x04, 0x55, 0xbd, 0x92, 0x7f, 0x9b, 0xbc,
  0x73, 0x0c, 0xba, 0x3d, 0x19, 0xf9, 0x11, 0xbe, 0x09, 0xe6, 0x2c, 0xbc,
  0x09, 0xe0, 0x98, 0xbd, 0xde, 0x76, 0x2f, 0xbd, 0x6d, 0xb8, 0xbd, 0xbd,
  0x5b, 0x8b, 0x30, 0xbc, 0x3f, 0xd3, 0x07, 0xbe, 0x2e, 0x2d, 0x51, 0xbd,
  0x33, 0x81, 0x5d, 0x3d, 0xa2, 0x35, 0xcd, 0x3b, 0xe4, 0x8a, 0x8f, 0x3d,
  0xd5, 0x89, 0xa5, 0x3d, 0x10, 0xf6, 0xd9, 0xbd, 0x45, 0x2b, 0x72, 0xbb,
  0x93, 0xad, 0x83, 0x3d, 0x16, 0x73, 0xfe, 0x3c, 0xf4, 0x1e, 0xe0, 0x3d,
  0xab, 0xc9, 0xee, 0x3d, 0x4f, 0x1d, 0x8b, 0xbd, 0x00, 0x59, 0xe1, 0x3d,
  0xbc, 0xf2, 0xe6, 0x3c, 0xc8, 0xd4, 0xc8, 0xbd, 0x8f, 0x91, 0x47, 0x3d,
  0x61, 0x19, 0x6f, 0x3d, 0x0e, 0x9c, 0xb2, 0xbd, 0xb1, 0x8e, 0x0e, 0xbd,
  0xf3, 0x4e, 0x8c, 0x3d, 0xc7, 0x13, 0x26, 0xbe, 0x8e, 0xc5, 0xe0, 0x3d,
  0xdd, 0x8b, 0xdc, 0x3d, 0x07, 0xde, 0x38, 0x3c, 0x67, 0x16, 0x0d, 0x3d,
  0xde, 0x50, 0x17, 0x3d, 0x88, 0x3c, 0x85, 0xbc, 0x76, 0x12, 0x91, 0xbd,
  0xc7, 0x6e, 0x5a, 0x3d, 0x6c, 0x30, 0x6c, 0xbc, 0x96, 0x76, 0x33, 0x3d,
  0x5e, 0x9a, 0xbf, 0x3d, 0xf2, 0xb4, 0x25, 0xbe, 0x03, 0x1c, 0xbd, 0xbc,
  0x01, 0x48, 0x61, 0x3c, 0xe3, 0x25, 0xae, 0xbd, 0x06, 0x36, 0xb8, 0x3d,
  0xc7, 0x97, 0x56, 0xbd, 0x08, 0xde, 0x15, 0x3d, 0x2a, 0x78, 0xc3, 0x3d,
  0x3e, 0x9e, 0x12, 0x3d, 0xd2, 0x82, 0x0d, 0x3c, 0x1d, 0x3b, 0xbc, 0x3d,
  0xe3, 0x50, 0xad, 0xbd, 0x47, 0xdd, 0xc0, 0xbd, 0x85, 0x2b, 0x05, 0xbd,
  0x6e, 0x56, 0x1b, 0xbd, 0x98, 0xe6, 0x97, 0x3c, 0x07, 0x41, 0xde, 0x3d,
  0xfe, 0xc7, 0xa4, 0xbd, 0xfc, 0x06, 0x11, 0xbc, 0x9e, 0x9e, 0xb3, 0xbc,
  0x67, 0xa8, 0x75, 0x3d, 0x57, 0x6c, 0xf8, 0xbb, 0xda, 0xae, 0xd3, 0x3c,
  0x41, 0x1b, 0x0e, 0x3d, 0xba, 0xed, 0x0a, 0xbe, 0xff, 0x03, 0xb8, 0x3d,
  0xd8, 0xea, 0x08, 0x3d, 0x03, 0x17, 0xe5, 0xbd, 0xbb, 0x48, 0x17, 0x3e,
  0x9a, 0x45, 0x65, 0x3d, 0x26, 0xe1, 0xbc, 0xbd, 0x84, 0xb9, 0xfb, 0x3c,
  0x98, 0x6a, 0xa9, 0x3d, 0x16, 0xf2, 0xea, 0xbd, 0x03, 0x5f, 0x18, 0xbd,
  0xb9, 0xdb, 0x0d, 0xbd, 0x16, 0xaa, 0xed, 0xbd, 0xd1, 0x38, 0xd3, 0x3d,
  0xc7, 0x3e, 0x04, 0x3d, 0xd5, 0x7c, 0x3c, 0xbd, 0xa0, 0x60, 0xa2, 0x3c,
  0xc4, 0x24, 0xbc, 0x3d, 0x78, 0x80, 0xa1, 0xbd, 0x69, 0xac, 0xa7, 0x3d,
  0x54, 0x7a, 0x9e, 0x3c, 0xf0, 0xa4, 0x2e, 0xbe, 0x50, 0x05, 0x21, 0xbc,
  0x58, 0xb9, 0xa9, 0x3d, 0x07, 0xee, 0xc6, 0xbd, 0x08, 0x7d, 0x95, 0x3d,
  0x9e, 0x05, 0xe3, 0x3c, 0x87, 0x37, 0x1e, 0xbe, 0x7f, 0x7b, 0x16, 0x3e,
  0x16, 0x2a, 0xb1, 0xbd, 0xaf, 0xb9, 0xcb, 0xbc, 0xbb, 0xd9, 0xf3, 0x3d,
  0x3c, 0x28, 0x6e, 0xbd, 0x36, 0xae, 0x07, 0xbe, 0xac, 0xd2, 0x37, 0x39,
  0x39, 0x73, 0x9c, 0x3d, 0xdf, 0x57, 0xe8, 0x3c, 0x2f, 0x2a, 0x09, 0x3d,
  0x6e, 0xf8, 0x8c, 0x3d, 0x1c, 0x4d, 0xb5, 0xbd, 0x44, 0xf6, 0x99, 0x3d,
  0x02, 0x62, 0x04, 0xbc, 0x8e, 0x3b, 0x99, 0xbd, 0x26, 0xf9, 0x3f, 0x3e,
  0x89, 0x14, 0x72, 0x3c, 0x12, 0x16, 0xcb, 0xbd, 0x5a, 0x79, 0xe1, 0x3d,
  0x31, 0x25, 0xe0, 0xbd, 0x55, 0xcb, 0x1a, 0xbe, 0x18, 0x66, 0xb3, 0x3c,
  0xaf, 0x7d, 0x88, 0xbd, 0xed, 0xad, 0xd5, 0xbd, 0x0a, 0xbe, 0x1a, 0x3e,
  0xc7, 0x30, 0x86, 0xbd, 0xaf, 0x2f, 0x3b, 0xbe, 0x54, 0x44, 0x83, 0x3c,
  0xa3, 0x5f, 0x7c, 0xbd, 0xf5, 0x71, 0x04, 0xbe, 0xe9, 0x1b, 0xc8, 0x3d,
  0xde, 0xbf, 0xc4, 0xbc, 0xf0, 0xa2, 0xd8, 0xbc, 0x7d, 0x80, 0xee, 0x3d,
  0xd7, 0x19, 0x04, 0x3d, 0xc1, 0xf1, 0x95, 0xbd, 0xd1, 0x8f, 0x6d, 0x3d,
  0xca, 0x18, 0x49, 0x3c, 0x7b, 0x86, 0x3a, 0xbe, 0xe3, 0xd5, 0xb4, 0x3d,
  0x7e, 0x0d, 0x6a, 0x3d, 0xd4, 0x6a, 0x04, 0xbd, 0x46, 0x66, 0xd7, 0x3c,
  0x99, 0x2d, 0xc7, 0x3c, 0x1f, 0x8d, 0x31, 0xbe, 0x5b, 0xd3, 0x48, 0x3d,
  0xcc, 0x72, 0xb9, 0x3d, 0x61, 0xd8, 0xc1, 0xbd, 0xe2, 0xd3, 0x12, 0x3e,
  0xe3, 0x99, 0x9a, 0xbd, 0xd7, 0xd3, 0xe6, 0xbd, 0xae, 0x42, 0xc5, 0x3c,
  0xa8, 0xcb, 0xb4, 0x3c, 0xd5, 0x4f, 0x46, 0xbe, 0xe8, 0x8e, 0xeb, 0xbc,
  0x90, 0xc0, 0x09, 0xbd, 0xda, 0xf6, 0xba, 0xbc, 0xc4, 0xac, 0x32, 0x3e,
  0xcc, 0x5e, 0xc1, 0xbd, 0xa6, 0x29, 0xfa, 0xbd, 0x1b, 0xa1, 0xdb, 0xbc,
  0xe8, 0x2e, 0xd3, 0xbd, 0x89, 0x77, 0xd2, 0xbc, 0xf4, 0x87, 0xc7, 0x3d,
  0x63, 0xa3, 0x68, 0xbc, 0x15, 0x14, 0xaa, 0xbd, 0x4b, 0x73, 0xad, 0x3d,
  0xa6, 0xfc, 0xd4, 0xbd, 0x78, 0x99, 0xd5, 0xbc, 0xea, 0x67, 0x23, 0x3c,
  0xdb, 0x4e, 0x79, 0xbc, 0xb3, 0x4c, 0x2d, 0xbe, 0x2e, 0x47, 0xea, 0x3d,
  0x4a, 0x1c, 0x56, 0xbd, 0xcc, 0xde, 0x55, 0xbe, 0x9d, 0x37, 0x07, 0x3e,
  0x03, 0xbf, 0x27, 0xbd, 0x63, 0xbd, 0x2c, 0xbe, 0xdb, 0x3e, 0xbc, 0x3d,
  0xcb, 0x70, 0x47, 0xbb, 0xd6, 0x34, 0xdd, 0xbd, 0xff, 0x39, 0xdd, 0x3d,
  0xf0, 0x89, 0x78, 0x3d, 0x97, 0x33, 0x93, 0xbd, 0x6f, 0x0b, 0xd4, 0x3d,
  0x2c, 0xda, 0xa4, 0xbb, 0xc7, 0x0e, 0xab, 0xbc, 0x0f, 0xf8, 0x07, 0xbd,
  0xb4, 0x38, 0x91, 0x3d, 0x76, 0xc1, 0x02, 0xbe, 0xdc, 0x26, 0x56, 0xbc,
  0xee, 0x64, 0xbc, 0xbd, 0xd6, 0x96, 0xed, 0xbd, 0x43, 0x07, 0x14, 0x3e,
  0xae, 0xff, 0x32, 0xbd, 0xb1, 0x12, 0xb6, 0xbd, 0x8e, 0x24, 0x70, 0x3d,
  0x10, 0x32, 0x6f, 0xbd, 0x87, 0x5a, 0x61, 0xbd, 0x08, 0x0a, 0x03, 0xbd,
  0x2b, 0xfe, 0x6c, 0x3d, 0xb4, 0xce, 0xcd, 0xbd, 0x17, 0xd4, 0xf1, 0x3d,
  0x80, 0xc8, 0x82, 0xbc, 0x25, 0xf1, 0x66, 0xbd, 0x2f, 0x26, 0xd9, 0x3d,
  0xdc, 0x3b, 0xba, 0x3d, 0x19, 0xcd, 0xdc, 0xbd, 0x0f, 0xe2, 0xd4, 0x3d,
  0x77, 0xf5, 0x97, 0x3d, 0xe6, 0x4e, 0x4b, 0xbd, 0x83, 0xa6, 0xbf, 0x3c,
  0x2e, 0xc1, 0x45, 0xbd, 0x24, 0x06, 0x6d, 0x3c, 0xf4, 0x4b, 0x8b, 0x3d,
  0x7a, 0x0a, 0xad, 0xbd, 0x74, 0xaf, 0x34, 0xbd, 0x16, 0x9e, 0xb6, 0xbb,
  0x99, 0x66, 0x9b, 0x3d, 0x04, 0x79, 0xfe, 0x3b, 0x10, 0x91, 0x4e, 0xbc,
  0x81, 0xee, 0x03, 0x3d, 0x02, 0xeb, 0xe2, 0xbc, 0x83, 0x5f, 0xaf, 0x3c,
  0x79, 0xe7, 0x54, 0xbd, 0x55, 0x44, 0xf6, 0xbd, 0x29, 0xc9, 0x8d, 0x3d,
  0x64, 0xab, 0x8a, 0x3d, 0xcf, 0xe6, 0x0e, 0xbe, 0xc5, 0x52, 0x40, 0xbc,
  0x5d, 0x24, 0x15, 0x3d, 0x32, 0x1b, 0xf1, 0xbd, 0x89, 0xf8, 0xbb, 0x3d,
  0xe1, 0x43, 0xb7, 0xbd, 0xc8, 0x63, 0xcc, 0xbd, 0x6a, 0x60, 0x82, 0xbd,
  0x9d, 0xf0, 0xb4, 0xbd, 0x1a, 0xf0, 0x8a, 0xbd, 0x4c, 0x14, 0x78, 0xbc,
  0x1b, 0xcf, 0x84, 0xbd, 0x54, 0x62, 0xd5, 0xbd, 0x7d, 0x3f, 0x33, 0x3d,
  0x3c, 0xa8, 0x95, 0x3d, 0xda, 0x91, 0xa7, 0xbd, 0xcb, 0xe9, 0xba, 0xbd,
  0x7e, 0x90, 0xa7, 0x3c, 0x92, 0xe6, 0xe8, 0xbc, 0x97, 0xa1, 0x3d, 0xbc,
  0x7a, 0xa7, 0x20, 0xbd, 0x39, 0x37, 0xb6, 0xbd, 0x3d, 0xdc, 0x81, 0x3d,
  0x2a, 0xc7, 0xc3, 0xbb, 0xa5, 0xa0, 0xaa, 0x3c, 0x0e, 0x59, 0x5a, 0x3b,
  0xdc, 0xb9, 0x96, 0x3d, 0x79, 0x88, 0x54, 0xbd, 0x62, 0x54, 0x69, 0x3d,
  0x26, 0x10, 0xd2, 0x3c, 0x88, 0xeb, 0x08, 0xbe, 0x7e, 0x87, 0xf2, 0xbd,
  0x0c, 0x25, 0xb1, 0xbd, 0x3e, 0x4e, 0x2f, 0x3b, 0x3e, 0x4b, 0x88, 0xbd,
  0x3a, 0xf8, 0x1a, 0xbd, 0x2e, 0xf9, 0xe9, 0xbc, 0x3a, 0x5a, 0x9b, 0x3c,
  0xa6, 0x4c, 0x42, 0xbd, 0xa4, 0x23, 0x00, 0x3d, 0x8f, 0x9c, 0x13, 0xbe,
  0x97, 0x68, 0xc7, 0x3d, 0xd6, 0x93, 0xc4, 0x3c, 0xed, 0x53, 0x4a, 0xbc,
  0xa7, 0xa9, 0x77, 0xbd, 0x20, 0x0b, 0xf5, 0xbd, 0x64, 0xeb, 0x77, 0x3c,
  0x3d, 0x0b, 0xba, 0x3d, 0x76, 0x44, 0x7b, 0xbd, 0xd6, 0x5c, 0x18, 0xbd,
  0xbd, 0xa4, 0x97, 0xbd, 0x38, 0x7f, 0x88, 0xbd, 0x78, 0x3f, 0x2a, 0xbc,
  0xfb, 0x0d, 0x7d, 0xbd, 0xd6, 0x37, 0xf3, 0xbd, 0x60, 0x25, 0xcd, 0xbd,
  0x6f, 0x16, 0x9b, 0x3d, 0x82, 0x8b, 0xc1, 0x3c, 0x46, 0xae, 0x07, 0xbe,
  0x5d, 0x0b, 0xb8, 0x3c, 0xaa, 0x7e, 0x77, 0x3d, 0xee, 0xea, 0x12, 0xbd,
  0x3d, 0xaa, 0x85, 0xbd, 0xf8, 0x5e, 0xa6, 0x3d, 0xe9, 0xa7, 0x21, 0xbe,
  0xca, 0x0f, 0xda, 0x3d, 0x37, 0x69, 0x09, 0xbd, 0x15, 0x77, 0x6f, 0xbe,
  0x90, 0xfd, 0x4d, 0xbd, 0xaa, 0xb8, 0x64, 0xbd, 0x8f, 0x2d, 0x74, 0xbd,
  0x7f, 0x2c, 0x91, 0xbd, 0x6f, 0x6f, 0x93, 0x3d, 0xf4, 0x31, 0x24, 0xbe,
  0xf5, 0xa2, 0x96, 0x3d, 0x2e, 0xaf, 0xdf, 0x3d, 0xc4, 0xe1, 0x89, 0xbc,
  0x3b, 0x9c, 0x5f, 0x3d, 0x8b, 0x32, 0x0b, 0x3d, 0xe5, 0xff, 0xeb, 0xbc,
  0xb5, 0x3f, 0x5e, 0x3d, 0x2a, 0x64, 0xc2, 0xbc, 0x5b, 0x42, 0x09, 0xbe,
  0x3e, 0xdb, 0x80, 0xbd, 0xd4, 0xda, 0xd3, 0x3c, 0xce, 0x7f, 0x47, 0x3c,
  0xc8, 0x38, 0x6b, 0x3d, 0x44, 0x3a, 0x07, 0x3e, 0x8c, 0x12, 0x39, 0xbe,
  0xa9, 0xe8, 0x1d, 0x3d, 0xd5, 0x3e, 0x3a, 0x3d, 0x52, 0x01, 0x0f, 0xbe,
  0x2b, 0xb8, 0x7b, 0x3d, 0xf4, 0xcb, 0x04, 0x3e, 0xb1, 0x68, 0x15, 0xbd,
  0xbb, 0xeb, 0x8c, 0xbd, 0xa7, 0x32, 0xae, 0x3c, 0x58, 0xfc, 0xd9, 0xbd,
  0xb6, 0x20, 0x24, 0xbc, 0x6a, 0x82, 0x17, 0x3e, 0x83, 0x62, 0xb7, 0xbb,
  0xe6, 0xba, 0xd2, 0x3d, 0xf8, 0xae, 0x26, 0x3e, 0x75, 0x24, 0xf8, 0x3b,
  0x8e, 0xbf, 0x59, 0x3b, 0xc8, 0x29, 0x2f, 0x3b, 0x9e, 0x1a, 0x92, 0x3c,
  0x90, 0x9b, 0xa2, 0x3d, 0xcb, 0xb6, 0x08, 0x3d, 0xd7, 0x52, 0x7c, 0x3d,
  0x7c, 0xeb, 0x2d, 0x3d, 0xe2, 0x4a, 0x5a, 0x3c, 0x11, 0xe7, 0x82, 0xbc,
  0xc6, 0x2f, 0xb5, 0xbc, 0x58, 0x19, 0x18, 0x3e, 0xf8, 0x8d, 0xd8, 0x3d,
  0x39, 0x9c, 0x7f, 0x3c, 0x08, 0x6c, 0x20, 0x3e, 0xf3, 0x4f, 0x8d, 0x3c,
  0x0a, 0x2d, 0xf1, 0x3d, 0x95, 0x5a, 0x21, 0x3e, 0x28, 0xb9, 0xa3, 0x39,
  0x7d, 0x4c, 0xc9, 0xbc, 0xbe, 0x50, 0x8c, 0x3d, 0xd3, 0x0a, 0x32, 0xbb,
  0xac, 0x73, 0x8f, 0xbd, 0x06, 0x4d, 0xef, 0x3d, 0xf2, 0x99, 0x3c, 0x3d,
  0x2c, 0xed, 0x29, 0x3d, 0x67, 0xa2, 0x62, 0x3c, 0x4d, 0xb8, 0x1d, 0x3d,
  0x7a, 0xa8, 0x1c, 0x3c, 0x76, 0xd4, 0x82, 0x3d, 0xce, 0x5e, 0xc5, 0x3d,
  0x3d, 0xa6, 0xcf, 0x3d, 0x6e, 0x21, 0x88, 0x3b, 0x8f, 0x4e, 0xbe, 0x3d,
  0xd9, 0xb7, 0x9a, 0x3d, 0xa3, 0xc9, 0xd6, 0xbb, 0xfd, 0x53, 0x5f, 0x3c,
  0x56, 0xef, 0x95, 0x3d, 0xa2, 0x96, 0x0d, 0x3e, 0xa0, 0xb5, 0x5a, 0x3d,
  0xca, 0xb4, 0x9d, 0x3c, 0x86, 0x40, 0x1d, 0x3d, 0xf0, 0xd5, 0x7e, 0x3d,
  0x2b, 0xec, 0x95, 0xbd, 0x06, 0x10, 0x2b, 0x3d, 0xad, 0xdf, 0x21, 0x3e,
  0x40, 0xb1, 0x05, 0xbb, 0x81, 0xc9, 0xbd, 0x3d, 0x93, 0xea, 0xc3, 0x3d,
  0xfb, 0xbb, 0x87, 0x3d, 0x9b, 0x6a, 0xc7, 0x3d, 0xf3, 0x8c, 0xa7, 0x3d,
  0xb6, 0x28, 0x2f, 0x3b, 0xd5, 0xd5, 0xbc, 0x3d, 0xb0, 0xed, 0x1b, 0x3e,
  0x9c, 0x70, 0xe7, 0x3d, 0x80, 0x75, 0x0d, 0x3e, 0xc1, 0xa0, 0x01, 0x3e,
  0x23, 0x21, 0xb1, 0xbd, 0x06, 0xa1, 0x36, 0x3e, 0x9d, 0xaf, 0x83, 0xbc,
  0x25, 0xea, 0x7c, 0x3d, 0xff, 0x63, 0xc2, 0x3d, 0x3d, 0xa6, 0x20, 0x3e,
  0xb2, 0x25, 0x9e, 0x3d, 0xff, 0x0e, 0x2b, 0x3c, 0x05, 0x29, 0x59, 0x3d,
  0x91, 0x55, 0x6c, 0x3d, 0xab, 0x30, 0x55, 0x3e, 0xbd, 0x28, 0x23, 0x3c,
  0x04, 0x0f, 0x24, 0x3d, 0x08, 0xae, 0x00, 0x3d, 0x0e, 0x9a, 0xc3, 0x3d,
  0xb3, 0x83, 0xde, 0x3d, 0x4a, 0x81, 0x79, 0x3c, 0x71, 0xc0, 0x06, 0x3e,
  0x77, 0xa9, 0x10, 0xbd, 0x81, 0xb1, 0xc7, 0x3d, 0x85, 0x64, 0x01, 0x3e,
  0x10, 0x34, 0x6d, 0x3c, 0xb1, 0x5d, 0xe5, 0x3c, 0x6a, 0xa5, 0xbb, 0xbc,
  0xe4, 0x77, 0x90, 0x3c, 0x7e, 0x4a, 0xe1, 0x3d, 0xe5, 0x34, 0x19, 0x3e,
  0x14, 0x88, 0xa0, 0xbd, 0xcd, 0xb0, 0x12, 0x3e, 0x0d, 0x06, 0x76, 0x3d,
  0x9f, 0xc5, 0xbc, 0x3b, 0xca, 0x4c, 0x45, 0x3e, 0x12, 0x5e, 0xe3, 0x3d,
  0x01, 0x78, 0x48, 0xbd, 0x8f, 0x59, 0x5f, 0x3e, 0x30, 0xbd, 0x27, 0x3e,
  0x13, 0x5b, 0x89, 0x3c, 0x70, 0xdd, 0x98, 0x3d, 0x9d, 0x14, 0xd8, 0x3c,
  0x77, 0xef, 0x22, 0xbd, 0xaf, 0x86, 0x25, 0x3e, 0x69, 0x41, 0x3f, 0x3e,
  0x7b, 0x1e, 0x65, 0x3d, 0x1d, 0x72, 0x1e, 0x3e, 0xb8, 0xd8, 0x29, 0x3e,
  0x85, 0x0a, 0x5a, 0x3d, 0x16, 0xb9, 0x43, 0x3e, 0x07, 0xd3, 0x3b, 0x3d,
  0x8f, 0xa0, 0x85, 0x3d, 0x69, 0x7b, 0xd4, 0x3d, 0x3d, 0x68, 0x5f, 0x3d,
  0x87, 0x36, 0xca, 0x3b, 0xda, 0x4f, 0x00, 0x3e, 0x96, 0x9b, 0xcc, 0x3d,
  0xdf, 0x54, 0x7b, 0xbd, 0x53, 0xf3, 0x51, 0x3e, 0xeb, 0xad, 0x8f, 0x3d,
  0xfb, 0xd3, 0x5a, 0x3c, 0x0a, 0xe9, 0xa3, 0xbd, 0xc3, 0x70, 0xbd, 0xbd,
  0x9d, 0x7f, 0x95, 0xbd, 0x20, 0x1c, 0xd5, 0x3b, 0x4f, 0x9b, 0x18, 0xbe,
  0xfa, 0xce, 0xc7, 0xbd, 0x8c, 0x58, 0xec, 0x3d, 0x8f, 0xbc, 0xa1, 0xbd,
  0x92, 0xe1, 0x91, 0xbd, 0x8a, 0xba, 0x0d, 0x3e, 0xa5, 0x7a, 0x14, 0x3d,
  0x1c, 0xee, 0x08, 0xbd, 0x20, 0xcc, 0x37, 0x3d, 0x42, 0x2a, 0x28, 0xbe,
  0x30, 0x1f, 0xc9, 0x3d, 0xfc, 0x34, 0x0b, 0x3e, 0x7b, 0x2b, 0x96, 0xbd,
  0x63, 0x00, 0x33, 0x3d, 0x47, 0x84, 0x8b, 0x3d, 0x07, 0x37, 0xbc, 0x3b,
  0x84, 0xbc, 0x4f, 0xbc, 0xa5, 0x72, 0xa3, 0x3d, 0x2f, 0x3c, 0x28, 0xbe,
  0x1b, 0x2d, 0x03, 0xbc, 0x6b, 0x5d, 0xb1, 0x3d, 0x79, 0x8f, 0xb8, 0xbc,
  0x6d, 0xfe, 0xf3, 0x3c, 0xb6, 0x49, 0x44, 0x3e, 0x4d, 0x85, 0xd0, 0xbd,
  0x59, 0x16, 0xa6, 0xbc, 0xdf, 0x7e, 0xeb, 0x3d, 0xe7, 0x7d, 0xf8, 0x39,
  0x31, 0xaa, 0x99, 0x3d, 0xcf, 0x63, 0xaa, 0x3c, 0x31, 0xd7, 0x29, 0xbe,
  0x26, 0x77, 0xf0, 0x3d, 0xb7, 0x75, 0xed, 0x3b, 0x11, 0xfb, 0x5f, 0xbd,
  0xa6, 0x30, 0x72, 0xbd, 0xc2, 0x6f, 0x3a, 0x3e, 0x60, 0xce, 0x97, 0xbd,
  0x7b, 0xf0, 0x16, 0x3d, 0x3d, 0xa7, 0x21, 0x3e, 0x77, 0x11, 0x8a, 0xbc,
  0x11, 0x65, 0xc2, 0x3c, 0x2a, 0xe4, 0x73, 0x3d, 0x84, 0x72, 0xfd, 0xbd,
  0x13, 0x40, 0x0c, 0xbd, 0x37, 0x96, 0x81, 0x3c, 0xab, 0xc8, 0x0e, 0xbe,
  0x7c, 0xb0, 0x8f, 0xbd, 0xa0, 0x3f, 0x1c, 0x3e, 0x30, 0xd0, 0xef, 0xbc,
  0x5e, 0x0d, 0x92, 0x3d, 0x3c, 0x3c, 0x9b, 0x3d, 0xf8, 0x76, 0x06, 0xbe,
  0x5c, 0xdf, 0xe5, 0x3d, 0x84, 0x8d, 0x10, 0x3b, 0x6e, 0x83, 0x0f, 0xbe,
  0x8a, 0xeb, 0xbf, 0x3d, 0x3e, 0x48, 0xb4, 0x3d, 0xa0, 0x1c, 0x31, 0xbe,
  0xd6, 0x9d, 0x6e, 0x3d, 0x16, 0xe4, 0x89, 0x3a, 0x74, 0x55, 0x43, 0xbe,
  0x30, 0x55, 0xa3, 0x3c, 0x8c, 0x8b, 0xba, 0xb9, 0x24, 0x36, 0xd7, 0xbc,
  0xd7, 0x7a, 0x2c, 0xbd, 0x40, 0x2f, 0x77, 0x3d, 0xb2, 0x1c, 0xce, 0xbd,
  0xb3, 0xe7, 0xf2, 0x3d, 0xc3, 0x99, 0x86, 0xbd, 0xbb, 0x59, 0x19, 0xbe,
  0xed, 0x28, 0xe9, 0x3d, 0x17, 0xbb, 0xff, 0x3d, 0x75, 0x5f, 0x80, 0xbd,
  0x5b, 0xbd, 0x29, 0x3d, 0x61, 0x2d, 0x1b, 0xbd, 0x20, 0xa9, 0x2e, 0xbe,
  0x74, 0xad, 0x95, 0xbd, 0x71, 0xf3, 0x87, 0x3d, 0x58, 0xd3, 0x69, 0xbb,
  0x38, 0x2e, 0xa5, 0xbd, 0x16, 0x84, 0x8c, 0xbd, 0xdc, 0x92, 0x98, 0x3c,
  0x27, 0x0c, 0xb9, 0xbb, 0x08, 0xf2, 0x9e, 0xbd, 0x36, 0xcf, 0x52, 0xbd,
  0x11, 0xb1, 0x91, 0xbd, 0xc9, 0xa3, 0x98, 0xbd, 0xe4, 0x99, 0x17, 0xbd,
  0x0d, 0x84, 0xe6, 0x3d, 0x02, 0xa9, 0xcb, 0xbc, 0xfc, 0xa0, 0xcd, 0x3d,
  0x89, 0x8a, 0xa5, 0xbd, 0x3c, 0xc8, 0x5f, 0xbd, 0xc5, 0x2b, 0x75, 0x3d,
  0xbd, 0x94, 0x00, 0xbd, 0x79, 0x85, 0x56, 0xbd, 0x57, 0x87, 0xf1, 0x3c,
  0x5c, 0x8f, 0x54, 0x3d, 0xb0, 0xb5, 0xfd, 0xbd, 0x1a, 0xe8, 0x6c, 0x3d,
  0x9e, 0xfe, 0xf1, 0xbb, 0x73, 0x9e, 0x9b, 0xbd, 0xc5, 0x05, 0x0e, 0x3d,
  0x42, 0x8f, 0x8f, 0x3d, 0x33, 0x33, 0x09, 0xbe, 0xf9, 0xa4, 0x03, 0x3d,
  0x01, 0x2d, 0xa3, 0x3d, 0x21, 0x06, 0xa7, 0xbd, 0x8a, 0x6d, 0x04, 0x3e,
  0x66, 0x13, 0x68, 0xbc, 0xcc, 0xfc, 0xd3, 0xbc, 0x49, 0x53, 0xab, 0x3d,
  0x76, 0x85, 0x4c, 0x3d, 0xed, 0x2d, 0x0e, 0xbe, 0x0f, 0x06, 0x29, 0xbb,
  0x26, 0xe8, 0x9e, 0x3d, 0xf3, 0xfd, 0x0f, 0x3d, 0xba, 0xda, 0x02, 0x3e,
  0xd7, 0x06, 0xeb, 0x3d, 0x32, 0xb8, 0x8f, 0x3b, 0xe0, 0x16, 0x87, 0x3d,
  0xca, 0xb2, 0xf9, 0x3d, 0xfd, 0x9f, 0xff, 0xbc, 0x69, 0x18, 0x33, 0xbc,
  0x99, 0x68, 0x83, 0x3d, 0xc4, 0xb7, 0x12, 0xbe, 0xaa, 0x05, 0xa0, 0x3d,
  0xcc, 0xab, 0x23, 0x3d, 0xa3, 0x65, 0xf9, 0xbd, 0xc2, 0xdb, 0x2a, 0x3c,
  0xa9, 0x16, 0x41, 0xbd, 0xf7, 0x16, 0x0d, 0x3d, 0x71, 0x24, 0x72, 0x3d,
  0x6d, 0x6a, 0xab, 0xbd, 0xac, 0x64, 0x95, 0xbc, 0xaa, 0xce, 0x08, 0x3d,
  0x38, 0xe8, 0x24, 0xbc, 0xea, 0xa9, 0x23, 0xbe, 0x73, 0xfa, 0xc8, 0xbc,
  0x84, 0xbd, 0xa0, 0xbd, 0xc3, 0xb0, 0x09, 0x3b, 0x40, 0x0f, 0x9b, 0x3d,
  0x01, 0xeb, 0x1b, 0x3d, 0xc2, 0x3a, 0xbd, 0xbd, 0xb9, 0x1c, 0xa2, 0x3c,
  0xf6, 0x5b, 0x81, 0x3d, 0x6e, 0x3f, 0x06, 0x3d, 0xaa, 0x47, 0xed, 0xbc,
  0x2c, 0xec, 0x8b, 0xbd, 0x46, 0xe5, 0x9b, 0xbd, 0x4d, 0x53, 0xd9, 0xbc,
  0x64, 0x98, 0x8b, 0x3c, 0xc6, 0x18, 0x0c, 0xbe, 0xa0, 0x20, 0x30, 0xbd,
  0x1d, 0xea, 0x7b, 0x3c, 0xe1, 0x79, 0x02, 0xbe, 0xd6, 0xd9, 0x28, 0xbc,
  0x4e, 0x75, 0x83, 0x3d, 0x1c, 0x80, 0xe6, 0xbd, 0x5f, 0x9c, 0xe5, 0x3c,
  0x57, 0x26, 0xd0, 0x3c, 0x27, 0x6c, 0x1f, 0xbe, 0x3e, 0x68, 0x6e, 0xbd,
  0x04, 0x33, 0x58, 0x3d, 0x33, 0xe1, 0xb5, 0xbd, 0xc5, 0x20, 0x7a, 0x3d,
  0x27, 0x04, 0xa4, 0x3d, 0x43, 0x5c, 0x8d, 0xbd, 0xcd, 0x6c, 0xc9, 0xbc,
  0xa2, 0xdc, 0xaa, 0x3d, 0xaf, 0x43, 0x94, 0xbd, 0xce, 0xf9, 0x07, 0x3e,
  0x6d, 0x6d, 0x69, 0x3c, 0x29, 0x3d, 0x82, 0xbd, 0xa4, 0xf9, 0x9d, 0x3d,
  0x93, 0x8a, 0x08, 0xbc, 0xc8, 0xa9, 0x74, 0x3c, 0x93, 0xaa, 0x3f, 0x3d,
  0x70, 0x55, 0xa9, 0xbd, 0xf6, 0xf2, 0xf4, 0x3c, 0xc3, 0xfb, 0xab, 0x3d,
  0x97, 0xe0, 0x97, 0xbd, 0xfa, 0x11, 0x0a, 0xbe, 0x5f, 0x12, 0x6e, 0x3d,
  0x23, 0x54, 0xd0, 0x3d, 0x9e, 0x1f, 0xc3, 0xbd, 0xcb, 0x78, 0x05, 0x3e,
  0xd4, 0xd5, 0xfa, 0x3b, 0x2a, 0x2e, 0xcc, 0xbd, 0xd0, 0x1a, 0x88, 0x3c,
  0xd3, 0x5a, 0x83, 0xbd, 0x72, 0x10, 0x03, 0xbe, 0x76, 0xb4, 0x2c, 0xbd,
  0x3e, 0xc4, 0x94, 0xbd, 0x27, 0xb3, 0x03, 0xbe, 0x24, 0xe2, 0x73, 0x3d,
  0x28, 0xda, 0xb7, 0xbd, 0x5e, 0x4a, 0x49, 0x3b, 0xff, 0x9e, 0x1e, 0x3e,
  0x3a, 0x02, 0x62, 0xbc, 0xc6, 0x86, 0x59, 0xbd, 0xd3, 0x52, 0x9d, 0x3b,
  0x4c, 0x46, 0x83, 0xbd, 0xcb, 0xcc, 0x9f, 0xbd, 0xeb, 0xd3, 0xe0, 0x3d,
  0xdd, 0x25, 0x5e, 0x3c, 0xc7, 0x2d, 0xc6, 0x3c, 0x23, 0x5c, 0xa8, 0xbc,
  0xf2, 0x23, 0xaf, 0x3d, 0xab, 0x74, 0x96, 0xbd, 0x56, 0x33, 0x12, 0x3d,
  0xf2, 0xb6, 0x22, 0xbc, 0xca, 0x30, 0x06, 0xbb, 0xe6, 0x67, 0xb9, 0xbc,
  0x74, 0x60, 0xb5, 0xbd, 0xeb, 0x04, 0x16, 0xbe, 0xb6, 0x3a, 0x68, 0x3c,
  0xba, 0xc1, 0xcc, 0x3b, 0x9b, 0x27, 0x22, 0xbe, 0x20, 0xcc, 0x8c, 0x3d,
  0x7c, 0x6b, 0xa1, 0x3d, 0x17, 0xa7, 0xb5, 0xbd, 0xbd, 0xeb, 0x84, 0xbc,
  0xd1, 0x5c, 0xe1, 0xba, 0x31, 0x35, 0x25, 0xbe, 0xe9, 0xcf, 0xb6, 0xbc,
  0x8e, 0x96, 0x6c, 0xbb, 0xda, 0x34, 0x18, 0xbe, 0x68, 0x3f, 0xb6, 0x3c,
  0x80, 0xbb, 0x20, 0x3b, 0xc6, 0xa5, 0x44, 0xbe, 0xc0, 0xb3, 0xc7, 0x3d,
  0x53, 0x34, 0x1e, 0x3d, 0x9b, 0x85, 0xda, 0xbd, 0x03, 0x7d, 0xa9, 0x3d,
  0x79, 0x8b, 0x77, 0x3d, 0x38, 0x58, 0xf8, 0xbd, 0xa5, 0xdf, 0x04, 0x3e,
  0x2a, 0x42, 0x62, 0xbd, 0x9e, 0xba, 0xae, 0xbd, 0xd1, 0x25, 0x4c, 0x3d,
  0xf1, 0xbb, 0xbb, 0xbc, 0x1f, 0x2e, 0xf3, 0xbd, 0x2f, 0x93, 0x06, 0x3e,
  0x1a, 0xf1, 0x94, 0x3d, 0x47, 0xf1, 0xae, 0xbd, 0xe2, 0x87, 0x8d, 0x3d,
  0x0b, 0x60, 0x41, 0xbd, 0x54, 0x1e, 0x22, 0xbe, 0x3e, 0xff, 0x92, 0x3d,
  0xfb, 0x5e, 0x91, 0xbd, 0x6c, 0xe7, 0xc8, 0xbd, 0x75, 0x16, 0x93, 0x3d,
  0x38, 0x95, 0xad, 0x3d, 0xc4, 0xba, 0x6a, 0xbd, 0xbb, 0xda, 0xa1, 0x3d,
  0x8e, 0x11, 0x66, 0xbd, 0xb0, 0x54, 0xdb, 0xbd, 0xc1, 0xe1, 0x39, 0x3c,
  0xd3, 0xfd, 0xaf, 0x3d, 0xd7, 0x29, 0x89, 0xbd, 0x68, 0x91, 0xf2, 0x3d,
  0x7e, 0x4e, 0x68, 0x3b, 0xd5, 0x5a, 0x64, 0xbd, 0x55, 0x96, 0xb5, 0x3d,
  0x0d, 0x72, 0x08, 0xbd, 0xfe, 0x57, 0x0e, 0xbe, 0x9e, 0x1e, 0x46, 0xbc,
  0x2a, 0x3b, 0xb3, 0xbd, 0x2a, 0xff, 0x2c, 0xbe, 0xdb, 0xe3, 0xa2, 0x3d,
  0xfd, 0x46, 0xa1, 0x3d, 0x25, 0xf8, 0x1d, 0xbe, 0x04, 0xba, 0x7e, 0x3d,
  0x00, 0x8f, 0x5c, 0x3d, 0x78, 0x92, 0x91, 0xbd, 0x4f, 0x2e, 0x15, 0x3e,
  0xe8, 0x72, 0xad, 0x3d, 0x6e, 0x1a, 0x24, 0xbe, 0xdd, 0x4e, 0xaa, 0x3d,
  0x43, 0x7b, 0xa7, 0x3d, 0x33, 0x72, 0x32, 0xbe, 0x01, 0x49, 0xa7, 0x3d,
  0x65, 0x18, 0xa9, 0x3d, 0x03, 0x15, 0x18, 0xbe, 0x7d, 0x66, 0x26, 0xbd,
  0x06, 0x78, 0x60, 0xbc, 0x91, 0x6f, 0x2b, 0xbe, 0xf7, 0x42, 0x75, 0x3d,
  0x3e, 0x08, 0xbe, 0xbc, 0x6c, 0x02, 0xb6, 0xbd, 0xe9, 0x71, 0xe0, 0x3c,
  0x5a, 0x2e, 0x10, 0x3d, 0xf5, 0xf0, 0xa5, 0x3c, 0x2b, 0x1f, 0xa8, 0x3d,
  0xeb, 0x3b, 0xa3, 0x3d, 0xd7, 0x27, 0x26, 0xbd, 0x46, 0xb4, 0xf7, 0x3d,
  0x0d, 0xf1, 0xc3, 0xbd, 0xa9, 0xbd, 0xaf, 0xbc, 0x7d, 0x42, 0xaf, 0x3d,
  0xf6, 0xba, 0xa9, 0x3d, 0x1b, 0xb0, 0x2c, 0xbe, 0xda, 0x3b, 0x33, 0xbd,
  0xd7, 0x62, 0x15, 0x3d, 0x48, 0xa8, 0x2e, 0xbe, 0x22, 0x8e, 0x7d, 0xbd,
  0x07, 0xb4, 0xbb, 0x3b, 0x1b, 0xaa, 0x7c, 0x3c, 0x24, 0x2d, 0x9b, 0x3d,
  0x89, 0x54, 0x34, 0x3d, 0xfd, 0xa1, 0x68, 0xbc, 0x6e, 0x16, 0xd7, 0x3d,
  0xdd, 0x05, 0x6b, 0x3d, 0xe8, 0x97, 0x0a, 0xbe, 0x48, 0xcf, 0x46, 0xbb,
  0xc4, 0x6d, 0xb5, 0xbd, 0x54, 0x09, 0x3c, 0x3c, 0x79, 0x4d, 0x0b, 0x3d,
  0xa4, 0x88, 0x08, 0x3d, 0x83, 0xe8, 0x0c, 0xbc, 0x81, 0xf4, 0x17, 0xbd,
  0x70, 0x5c, 0x9f, 0x3d, 0x5d, 0xe9, 0x14, 0xbe, 0x9f, 0x20, 0x1e, 0xbc,
  0x43, 0xc4, 0x77, 0xbd, 0x01, 0xbd, 0xe7, 0xbd, 0x12, 0x2d, 0x74, 0x3c,
  0x30, 0xc0, 0x53, 0xbd, 0xbf, 0x2f, 0x8e, 0xbd, 0xa5, 0x96, 0xaa, 0xbd,
  0x8c, 0x88, 0x88, 0xbd, 0xf7, 0x97, 0x89, 0xbc, 0xb9, 0x62, 0xa1, 0xbd,
  0xa5, 0x4e, 0xfd, 0xbc, 0x18, 0x2a, 0x0f, 0x3b, 0xf8, 0x6d, 0x37, 0xba,
  0x2f, 0x10, 0x2d, 0xbd, 0xb8, 0xc5, 0x9e, 0xbc, 0x1b, 0xea, 0x3c, 0x3d,
  0x5f, 0x51, 0x08, 0x3d, 0xdf, 0x87, 0xf4, 0xbd, 0xe4, 0x0d, 0x7d, 0xbc,
  0xa2, 0x14, 0xcf, 0xbd, 0x5c, 0x1e, 0xcd, 0xbd, 0x54, 0xe6, 0x83, 0x3d,
  0xf7, 0x73, 0x31, 0xbc, 0x9b, 0xda, 0x80, 0x3d, 0x00, 0x38, 0x7d, 0x39,
  0x14, 0x9e, 0x23, 0x3d, 0x34, 0x8f, 0x98, 0xbd, 0xfb, 0x34, 0xa8, 0xbd,
  0x43, 0x8b, 0xb3, 0x3d, 0xdb, 0xeb, 0x05, 0xbe, 0x88, 0xf9, 0x22, 0xbd,
  0x76, 0x21, 0x7b, 0xbd, 0xa3, 0x63, 0xc2, 0xbd, 0x63, 0xcb, 0x15, 0xbd,
  0x39, 0x58, 0xa2, 0x3c, 0x8d, 0xf4, 0x78, 0x3d, 0xc2, 0x5a, 0xfe, 0xbd,
  0x14, 0x3a, 0x65, 0x3d, 0x3f, 0xf6, 0x0a, 0xbe, 0x37, 0xd4, 0x09, 0xbd,
  0xde, 0x4d, 0xca, 0xbb, 0xd0, 0x50, 0x4f, 0x3c, 0x60, 0x90, 0xaf, 0xbd,
  0xeb, 0x7d, 0xb9, 0xbd, 0x4d, 0xc6, 0xc4, 0xbb, 0xa8, 0xe6, 0x29, 0xbd,
  0x8c, 0xe5, 0xf3, 0xbc, 0x83, 0x50, 0x05, 0xbd, 0xe4, 0x93, 0xd1, 0xbb,
  0x45, 0x6c, 0xce, 0x3c, 0xc7, 0x23, 0x3f, 0x3c, 0x8a, 0xb6, 0x72, 0xbd,
  0xee, 0x2f, 0x4e, 0xbd, 0xf9, 0x00, 0x9f, 0x3d, 0x6e, 0x6f, 0xd0, 0xbd,
  0x93, 0x03, 0x9f, 0xbd, 0xb9, 0xc8, 0x21, 0x3d, 0xce, 0x6e, 0x3d, 0xbe,
  0x09, 0xeb, 0x2b, 0xbd, 0x51, 0xc5, 0x50, 0xbd, 0x0c, 0xb8, 0x0c, 0xbe,
  0xd4, 0x00, 0x81, 0xbd, 0x0f, 0x83, 0x9f, 0x3d, 0xa4, 0x8a, 0x13, 0xbe,
  0xff, 0xeb, 0xf5, 0xbc, 0xa2, 0xf8, 0x96, 0xbd, 0x9b, 0x63, 0x3f, 0xbe,
  0xf1, 0xeb, 0x4b, 0x3d, 0x74, 0x0a, 0xfc, 0xbc, 0x23, 0x99, 0x65, 0xbe,
  0xd4, 0x82, 0xef, 0x3d, 0x22, 0xcc, 0xb0, 0x3d, 0xc5, 0xd3, 0xe2, 0xbd,
  0xf9, 0xa0, 0x94, 0xbd, 0x51, 0xe5, 0xb0, 0xbb, 0x60, 0x47, 0x81, 0xbd,
  0x28, 0x04, 0xf0, 0x3d, 0xe8, 0xb7, 0xfd, 0x3c, 0xd6, 0x41, 0x36, 0xbc,
  0xbe, 0xd6, 0x95, 0x3c, 0xd2, 0xdc, 0x14, 0x3e, 0x63, 0xdb, 0x1e, 0xbc,
  0xe6, 0x7c, 0x14, 0xbd, 0x72, 0x02, 0x12, 0xbc, 0xda, 0x48, 0x71, 0x3d,
  0x9c, 0x52, 0x02, 0x3d, 0x77, 0x79, 0x96, 0x3d, 0x04, 0xf8, 0x1f, 0xbe,
  0x97, 0x23, 0x9a, 0x3d, 0xbc, 0x9a, 0x1b, 0x3e, 0x40, 0xa0, 0x13, 0xbe,
  0xf2, 0x49, 0x04, 0x3d, 0x54, 0x85, 0xec, 0x3d, 0xdd, 0x09, 0x01, 0xbe,
  0x87, 0x9e, 0x7f, 0x3d, 0x04, 0x04, 0x37, 0x3d, 0x3b, 0x86, 0x8d, 0x3d,
  0xc7, 0x73, 0x6b, 0xbc, 0x7f, 0xa4, 0xaf, 0x3d, 0xe0, 0x9d, 0x5a, 0x3b,
  0x65, 0xf6, 0x78, 0xbc, 0x1d, 0x73, 0x17, 0x3d, 0xad, 0x26, 0x1a, 0x3c,
  0x8c, 0x64, 0xd0, 0x3d, 0x75, 0xd9, 0x4a, 0x3d, 0x9f, 0x2d, 0x88, 0xbb,
  0x57, 0xbd, 0x1f, 0x3c, 0x91, 0x8f, 0x16, 0x3e, 0x34, 0xe9, 0x18, 0x3d,
  0xc8, 0x3c, 0xa7, 0x39, 0xe0, 0x56, 0x90, 0x3d, 0xbf, 0xf5, 0x8e, 0x3a,
  0x3e, 0xc9, 0xb7, 0x3a, 0x21, 0x46, 0x5b, 0x3d, 0x58, 0xe8, 0x35, 0x3c,
  0x57, 0xa2, 0x87, 0x3c, 0xe1, 0x8b, 0xe5, 0xbc, 0x24, 0x40, 0xcd, 0x39,
  0x10, 0x17, 0xfb, 0x3d, 0x32, 0xc9, 0xdf, 0x3d, 0xf5, 0x66, 0x8c, 0x3d,
  0xaf, 0x50, 0xf3, 0x3d, 0x88, 0xcc, 0xe3, 0x3d, 0x0e, 0x2b, 0x99, 0x3d,
  0x7c, 0xb8, 0x59, 0xbd, 0x09, 0x8b, 0x24, 0x3a, 0x30, 0xaa, 0x1b, 0x3d,
  0xc2, 0x90, 0x97, 0xbd, 0x54, 0x62, 0x81, 0x3d, 0xd9, 0xa8, 0x9c, 0x3d,
  0xc3, 0x6f, 0x9c, 0xbd, 0x40, 0xea, 0x72, 0xbc, 0x4f, 0x1e, 0x98, 0x3c,
  0xcd, 0x42, 0x4e, 0x3d, 0x2c, 0xd3, 0xe0, 0x3d, 0xb3, 0x00, 0x8d, 0x3d,
  0x14, 0xe4, 0x0c, 0x3d, 0xc1, 0xfb, 0x32, 0x3e, 0xb0, 0x59, 0xf5, 0x3d,
  0x48, 0x9c, 0x83, 0x3d, 0xa9, 0x00, 0x55, 0x3c, 0xd7, 0x19, 0xcc, 0x3d,
  0xc1, 0xdd, 0x8b, 0xbc, 0x30, 0x57, 0x74, 0x3d, 0xc0, 0xe0, 0xf2, 0x3b,
  0x2d, 0x3e, 0x78, 0x3c, 0xd3, 0x94, 0xed, 0x3d, 0x56, 0x2f, 0xea, 0x3d,
  0xc1, 0x3a, 0x49, 0xbd, 0x36, 0xb8, 0xa8, 0x3d, 0xd4, 0xf6, 0xf4, 0x3d,
  0x49, 0xfe, 0x27, 0xbd, 0x85, 0x5d, 0x9f, 0x3b, 0x5f, 0xc9, 0x74, 0xbb,
  0xc4, 0x81, 0xb4, 0xbc, 0xc9, 0x7f, 0x86, 0x3d, 0x70, 0x0a, 0x1c, 0x3e,
  0xd5, 0xcf, 0xd9, 0x3d, 0xaa, 0xe6, 0x39, 0x3e, 0x7b, 0xf5, 0xae, 0x3d,
  0x96, 0x1e, 0xf2, 0x3d, 0xea, 0xd0, 0xca, 0x3d, 0xda, 0x3d, 0x9f, 0x3d,
  0x5f, 0x81, 0x42, 0xbd, 0x65, 0xd0, 0xdd, 0x3d, 0x74, 0x01, 0xc5, 0x3d,
  0xeb, 0xe5, 0xad, 0x3a, 0x36, 0x17, 0x0c, 0x3e, 0xd0, 0xa7, 0xe6, 0x3d,
  0x86, 0x6b, 0xdb, 0xbc, 0x4d, 0x28, 0x52, 0x3e, 0x4f, 0xe8, 0x84, 0x3d,
  0x21, 0xda, 0x1a, 0xbd, 0x1b, 0x3d, 0x03, 0x3e, 0x91, 0xd6, 0xc8, 0x3d,
  0xd5, 0x67, 0x05, 0xbd, 0x6d, 0xae, 0xf3, 0x3d, 0xf8, 0x4e, 0x9c, 0x3d,
  0x26, 0xcf, 0x8c, 0xbc, 0xed, 0x45, 0x4b, 0x3e, 0x2e, 0xbe, 0x25, 0x3d,
  0xff, 0x99, 0x15, 0x3d, 0x02, 0x3b, 0x11, 0x3d, 0x08, 0x41, 0xcd, 0x3d,
  0xb2, 0x52, 0x8e, 0x3d, 0x9c, 0x6f, 0x0d, 0x3e, 0xe4, 0x0f, 0x35, 0x3d,
  0x6d, 0xa5, 0x0b, 0xbc, 0x58, 0x18, 0x21, 0x3d, 0x85, 0x5f, 0x01, 0x3e,
  0x2a, 0x54, 0xd2, 0x3c, 0x71, 0x10, 0x51, 0x3d, 0xc6, 0x70, 0xaf, 0x3d,
  0xa4, 0xcd, 0x01, 0x3e, 0x3e, 0xb1, 0x05, 0x3e, 0xfe, 0x3a, 0xd2, 0x3d,
  0x26, 0xe8, 0xeb, 0x3c, 0xd7, 0x7f, 0x6c, 0x3d, 0x49, 0x42, 0x2d, 0x3e,
  0xa0, 0x4b, 0x83, 0x3d, 0x9e, 0x95, 0x37, 0x3e, 0x16, 0x57, 0x8b, 0x3d,
  0x44, 0xde, 0xf7, 0x3d, 0x62, 0xef, 0xb7, 0x3d, 0x9b, 0xd9, 0x23, 0x3d,
  0x7f, 0x8d, 0x6c, 0x3d, 0xba, 0x28, 0x72, 0x3e, 0x04, 0xd5, 0xb6, 0x3d,
  0x2b, 0x39, 0xee, 0x3d, 0x32, 0xe0, 0x9d, 0x3d, 0xcc, 0x5b, 0x81, 0x3d,
  0xd1, 0xbf, 0xda, 0x3d, 0xaa, 0x55, 0x23, 0x3e, 0x14, 0x6d, 0xd8, 0x3d,
  0xb4, 0x62, 0x94, 0xbd, 0xde, 0xb6, 0x61, 0x3e, 0x47, 0x5e, 0x54, 0x3e,
  0xae, 0xf0, 0x99, 0xbd, 0x06, 0x4f, 0xe1, 0x3d, 0x07, 0xa4, 0x80, 0x3e,
  0x9c, 0x5e, 0x08, 0x3a, 0x92, 0x27, 0x50, 0x3e, 0xc0, 0x50, 0x6a, 0x3e,
  0xb8, 0xc2, 0x83, 0xbd, 0xbc, 0x84, 0x4b, 0x3e, 0xc6, 0x2b, 0x4f, 0x3e,
  0x26, 0x4c, 0xd2, 0x3d, 0xb4, 0xc9, 0xa4, 0x3d, 0x3e, 0xb2, 0xec, 0x3d,
  0xa7, 0x89, 0x9e, 0xbc, 0x98, 0xfb, 0x44, 0x3d, 0x77, 0x43, 0x42, 0x3e,
  0xec, 0xd2, 0x1f, 0xbd, 0x8a, 0xf8, 0x01, 0x3e, 0xbc, 0x75, 0xd0, 0x3d,
  0x37, 0x99, 0xe0, 0x3c, 0x84, 0x43, 0x4d, 0x3e, 0xec, 0xff, 0x5b, 0x3e,
  0xab, 0x27, 0x9f, 0x3d, 0xa3, 0x63, 0x29, 0x3e, 0xc6, 0x29, 0x86, 0x3d,
  0x08, 0x6b, 0x92, 0x3d, 0xb8, 0x6e, 0x12, 0xba, 0xea, 0x54, 0x85, 0x3e,
  0x78, 0xac, 0x8b, 0x3d, 0x21, 0xf9, 0xe6, 0x3d, 0x39, 0xd5, 0x79, 0x3e,
  0xde, 0x04, 0xb5, 0x3d, 0x76, 0xeb, 0xb1, 0x3c, 0x64, 0xb4, 0x92, 0x3d,
  0xd6, 0x63, 0xcc, 0xbc, 0x34, 0x68, 0x49, 0xbd, 0xb4, 0x14, 0x47, 0x3e,
  0x2c, 0xee, 0x7a, 0xbd, 0xd8, 0x1a, 0xae, 0x3c, 0x42, 0xcb, 0x80, 0x3e,
  0x1f, 0x1d, 0x1c, 0x3c, 0xcb, 0xb9, 0x7b, 0x3b, 0x8c, 0x25, 0x34, 0x3e,
  0x9d, 0x87, 0x5c, 0xbd, 0x8f, 0x9f, 0xae, 0x3d, 0x8b, 0x63, 0x4e, 0x3e,
  0x9e, 0x40, 0xbd, 0x3d, 0x28, 0xa4, 0x7c, 0x39, 0x34, 0xb9, 0x52, 0x3e,
  0x51, 0x98, 0x6a, 0x3d, 0xd1, 0x05, 0x56, 0x3d, 0xda, 0x25, 0x1e, 0x3e,
  0xa7, 0x7f, 0x54, 0xbd, 0x3d, 0x59, 0x43, 0x3d, 0xb4, 0x41, 0xa4, 0x3d,
  0x08, 0xbc, 0x9b, 0xbd, 0xd1, 0x58, 0x63, 0xbd, 0x27, 0xf1, 0x36, 0x3e,
  0x46, 0x3d, 0x72, 0xbd, 0x4b, 0x78, 0x95, 0xbc, 0x58, 0x5b, 0x17, 0x3e,
  0x3c, 0x82, 0xb7, 0xbd, 0xfd, 0x97, 0x96, 0xbd, 0xa5, 0xa6, 0x28, 0x3e,
  0x5b, 0x14, 0x12, 0x3c, 0xdd, 0x81, 0x5f, 0x3d, 0xfa, 0x9c, 0x23, 0x3e,
  0x40, 0x8e, 0xae, 0x3d, 0xd2, 0x16, 0x36, 0x3d, 0x03, 0x38, 0x97, 0x3d,
  0xa5, 0x9e, 0xdc, 0xbd, 0x0a, 0xa6, 0x22, 0x3d, 0xd6, 0xbf, 0x0b, 0x3e,
  0x0f, 0x59, 0x8d, 0x3c, 0x24, 0xdf, 0x75, 0x3d, 0x27, 0x5c, 0x4f, 0x3e,
  0xfb, 0x66, 0x97, 0x3d, 0x8f, 0x82, 0x74, 0xbd, 0xa3, 0xe2, 0x5c, 0x3d,
  0x44, 0x72, 0x8e, 0xbd, 0x51, 0xf0, 0x9c, 0xbd, 0xca, 0x28, 0x3d, 0x3e,
  0xb8, 0x3e, 0xbd, 0xbd, 0x66, 0x0d, 0x04, 0x3c, 0x78, 0x3b, 0x34, 0xbd,
  0xf8, 0x67, 0xe5, 0x3b, 0x7d, 0x9c, 0xa6, 0x3c, 0x43, 0x06, 0xdd, 0xbc,
  0xd5, 0xf1, 0xed, 0xbc, 0xc9, 0xa2, 0x87, 0xbb, 0x34, 0xd1, 0xe8, 0x3c,
  0x59, 0x8b, 0xaf, 0x3d, 0xb8, 0x87, 0x88, 0xbb, 0x00, 0x31, 0x3b, 0x3e,
  0x9f, 0xc3, 0x57, 0xbd, 0x55, 0x9c, 0x69, 0xbd, 0xd4, 0xa2, 0x8d, 0x3c,
  0x40, 0x12, 0x57, 0x3d, 0x61, 0xb0, 0x85, 0x3d, 0x8c, 0x74, 0xe9, 0xbc,
  0xe6, 0xc6, 0xc7, 0x3d, 0xfc, 0xf5, 0x5b, 0xbc, 0x73, 0xb3, 0x0a, 0x3e,
  0x30, 0x86, 0x86, 0xbc, 0x2f, 0xef, 0xb8, 0x3d, 0xba, 0x54, 0x8a, 0x3b,
  0xc4, 0x36, 0x9f, 0x3d, 0xdb, 0x28, 0xb0, 0x3d, 0x80, 0x31, 0x7d, 0xbc,
  0xe4, 0x78, 0xaf, 0x3d, 0xc9, 0x5d, 0x4f, 0x3d, 0x74, 0xc1, 0x9a, 0xbd,
  0x0a, 0xa5, 0xab, 0x3d, 0x78, 0xfc, 0x84, 0x3c, 0x4c, 0x5a, 0xf1, 0xba,
  0x3a, 0x18, 0x25, 0x3d, 0xfc, 0x91, 0xdb, 0x3d, 0x0e, 0x59, 0x16, 0xbe,
  0xc8, 0xa7, 0x8e, 0x3d, 0x29, 0xb5, 0xab, 0x3d, 0x0f, 0x1f, 0x6f, 0xbd,
  0x9d, 0xf0, 0x68, 0x3d, 0xbd, 0x12, 0xbb, 0x3d, 0xaf, 0xdf, 0xec, 0xbc,
  0xc5, 0xbc, 0xd4, 0xbc, 0x45, 0x21, 0x11, 0x3e, 0xd6, 0xfc, 0x12, 0xbe,
  0xcd, 0x9c, 0x33, 0xbd, 0x74, 0xe0, 0x26, 0xbd, 0x42, 0xc0, 0x93, 0x3c,
  0x6e, 0x55, 0x4d, 0xbb, 0xb9, 0xb7, 0x26, 0x3d, 0x71, 0xb9, 0x15, 0xbd,
  0x02, 0x48, 0x92, 0x3d, 0x91, 0x70, 0x7a, 0x3d, 0x9d, 0x1f, 0xa3, 0xbd,
  0xa7, 0x1f, 0xc7, 0x3d, 0x91, 0xc7, 0x00, 0x3e, 0xa1, 0x68, 0x9d, 0xbd,
  0x03, 0x4d, 0x83, 0xbc, 0xb1, 0xee, 0x86, 0xbd, 0x5a, 0x4f, 0x4b, 0x3c,
  0xda, 0x8c, 0x7f, 0x3c, 0xca, 0x6f, 0xdc, 0x3d, 0xfd, 0x0a, 0xac, 0xbd,
  0x8b, 0x22, 0x8a, 0x3d, 0x72, 0x39, 0x8c, 0x3b, 0xa8, 0x4c, 0x37, 0xbd,
  0x0e, 0x4b, 0x9d, 0x3d, 0x58, 0x0a, 0x3f, 0x3d, 0xb1, 0xd5, 0x47, 0xbd,
  0xb4, 0x73, 0xc0, 0x3d, 0xa7, 0x97, 0x60, 0xbd, 0xbf, 0x30, 0xec, 0xbd,
  0x9f, 0x9b, 0x80, 0x3d, 0xdc, 0xa4, 0x6b, 0x3c, 0xe4, 0x57, 0x1a, 0xbe,
  0x75, 0x7f, 0xb9, 0xbc, 0x52, 0xd4, 0x8a, 0x3d, 0x2b, 0xd1, 0x1b, 0xbe,
  0x1e, 0x06, 0x44, 0xbd, 0xc8, 0xbd, 0x67, 0x3d, 0x8a, 0x4b, 0xf4, 0xbd,
  0x22, 0xfb, 0x05, 0xbc, 0x2b, 0x95, 0xf4, 0x3d, 0x64, 0x01, 0xad, 0xbd,
  0x02, 0x7f, 0x7e, 0x3c, 0xf8, 0x0e, 0x2a, 0x3c, 0xd6, 0xb5, 0x34, 0xbd,
  0x78, 0xc7, 0xe3, 0x3d, 0x4b, 0x6d, 0xfa, 0x3d, 0x7a, 0x10, 0x96, 0xbd,
  0xa8, 0xf0, 0xe9, 0x3d, 0xb1, 0xf4, 0x64, 0x3b, 0x98, 0xa6, 0xd1, 0xbc,
  0xc3, 0xfc, 0x5c, 0x3c, 0xcf, 0x96, 0x41, 0x3d, 0x54, 0x26, 0x9f, 0xbd,
  0xc0, 0xe4, 0x68, 0x3d, 0x73, 0x46, 0x13, 0x3e, 0x57, 0xbf, 0x4b, 0xbd,
  0xdd, 0x43, 0xe8, 0x3d, 0x98, 0xaa, 0x03, 0x3e, 0x02, 0x5a, 0x1e, 0xbd,
  0x85, 0xea, 0xcc, 0x3d, 0x93, 0xa8, 0x82, 0xbd, 0x85, 0xe4, 0x51, 0xbe,
  0x52, 0x9b, 0x2f, 0x3d, 0x9e, 0xdf, 0x85, 0x3b, 0x43, 0xbe, 0x0e, 0xbe,
  0x09, 0x33, 0x73, 0x3d, 0xd1, 0x18, 0x5f, 0xbc, 0x18, 0x39, 0x99, 0xbc,
  0x9b, 0x9c, 0x95, 0xbd, 0xa9, 0x7e, 0x07, 0xbd, 0xdc, 0xda, 0x00, 0xbe,
  0x30, 0xd4, 0xca, 0x3c, 0xab, 0xaa, 0x84, 0x3d, 0x07, 0x05, 0x9d, 0xbb,
  0xcf, 0x05, 0xde, 0x3c, 0xee, 0xd0, 0x1b, 0x3e, 0xfd, 0xee, 0x3b, 0xbe,
  0xac, 0x3f, 0x96, 0x3d, 0x69, 0xd3, 0x48, 0xbc, 0x62, 0xb7, 0xbc, 0xbd,
  0x88, 0xeb, 0x0d, 0x3d, 0x12, 0x66, 0x46, 0xbd, 0x54, 0x10, 0x2d, 0xbe,
  0x87, 0xeb, 0xc1, 0x3d, 0x77, 0xad, 0x74, 0x3d, 0x07, 0xe9, 0x74, 0xbd,
  0xad, 0x8f, 0xa2, 0x3b, 0xdc, 0x0c, 0x32, 0x3b, 0x47, 0xc7, 0x06, 0xbe,
  0xb8, 0x01, 0xdf, 0x3c, 0x54, 0x44, 0x0c, 0x3e, 0x5c, 0x65, 0x01, 0xbe,
  0xef, 0x1c, 0xc8, 0xbc, 0x51, 0x8a, 0x1c, 0x3e, 0x1a, 0x7d, 0xab, 0xbd,
  0xc7, 0x69, 0xb4, 0x3d, 0x0b, 0x49, 0x15, 0x3b, 0xa4, 0x8d, 0x9d, 0xbc,
  0xe1, 0x48, 0x5a, 0x3d, 0x37, 0x7d, 0xe5, 0x3c, 0xb4, 0xff, 0xa4, 0x3c,
  0x70, 0xba, 0x01, 0x3d, 0x5a, 0xf0, 0x8e, 0x3d, 0xe7, 0x2e, 0x45, 0xbd,
  0x8a, 0xaf, 0xcc, 0x3c, 0x3a, 0x29, 0x61, 0x3d, 0x59, 0xbc, 0x24, 0xbe,
  0x16, 0x28, 0xce, 0x3d, 0x8e, 0x94, 0xe1, 0x3c, 0x28, 0x4b, 0xb7, 0x3b,
  0xbc, 0x9b, 0x86, 0x3d, 0xfc, 0x86, 0x1b, 0x3e, 0x06, 0x1d, 0x03, 0xbd,
  0xed, 0x91, 0xd3, 0x3d, 0xb1, 0x5d, 0x0c, 0x3e, 0x6d, 0x1e, 0x55, 0xbd,
  0x48, 0x31, 0xb7, 0x3d, 0xf7, 0xd9, 0xa0, 0x3d, 0x4c, 0x7a, 0x71, 0xbd,
  0x0d, 0xc5, 0x68, 0x3d, 0x58, 0x3d, 0xb1, 0xbb, 0x99, 0x67, 0x7c, 0xbd,
  0x47, 0xf0, 0x3f, 0xbd, 0x22, 0xa6, 0x35, 0x3e, 0x42, 0x4b, 0xdc, 0xbd,
  0x80, 0x00, 0xec, 0x3c, 0x0b, 0xa2, 0xe1, 0x3c, 0x69, 0x53, 0xb8, 0xbb,
  0x0d, 0xa9, 0x8c, 0xbd, 0x84, 0xfc, 0x8e, 0x3d, 0x22, 0xc5, 0x91, 0xbc,
  0x06, 0x8b, 0x22, 0x3d, 0xfd, 0xae, 0x2b, 0x3e, 0x5b, 0x02, 0x08, 0xbd,
  0xcc, 0xaf, 0xa5, 0xbc, 0xbf, 0x01, 0x0b, 0x3d, 0x97, 0x88, 0x97, 0xbd,
  0xea, 0x49, 0xee, 0x3d, 0x72, 0xe0, 0xa5, 0x3d, 0x52, 0x4e, 0xa7, 0xbd,
  0x2a, 0x61, 0x9b, 0xbd, 0x56, 0xa1, 0x33, 0x3e, 0xcf, 0x83, 0xe4, 0x3c,
  0x5c, 0x14, 0xd1, 0x3d, 0x1f, 0xd8, 0xa9, 0x3d, 0x49, 0x4a, 0x44, 0x3d,
  0x2a, 0x33, 0xa9, 0xbd, 0x15, 0xea, 0xde, 0x3c, 0xc4, 0xf3, 0x96, 0xbd,
  0xb2, 0x48, 0x98, 0xbd, 0x66, 0x55, 0x3d, 0x3c, 0xe7, 0x4f, 0xa8, 0x3d,
  0x0c, 0x1a, 0x16, 0xbd, 0x8b, 0x61, 0xb4, 0xbc, 0x3b, 0x10, 0xb9, 0xbd,
  0x3c, 0x3a, 0x01, 0x3c, 0x7c, 0x4a, 0x7b, 0x3c, 0x59, 0xa6, 0xbb, 0xbc,
  0x33, 0x21, 0x3e, 0xbd, 0xd3, 0xed, 0xbd, 0x3d, 0xff, 0x06, 0x73, 0xbc,
  0xcc, 0xf7, 0xb2, 0x3d, 0x87, 0xbb, 0x8f, 0xbb, 0xe6, 0x53, 0x89, 0x3c,
  0x97, 0xb7, 0xb3, 0x3d, 0x7d, 0xcc, 0x0e, 0x3e, 0x0f, 0xcf, 0x37, 0x3d,
  0xac, 0x74, 0xd1, 0x3d, 0xb3, 0x50, 0xa0, 0x3d, 0xf7, 0x19, 0x37, 0xbd,
  0x12, 0x57, 0x7a, 0xbd, 0xc8, 0xae, 0x09, 0x3e, 0x9b, 0xa8, 0xc9, 0x3d,
  0x6c, 0x2b, 0x76, 0x3c, 0x37, 0xbd, 0x03, 0x3e, 0x37, 0x20, 0x19, 0x3c,
  0x8f, 0xa9, 0xc9, 0xbd, 0xd0, 0xf2, 0x4a, 0x3d, 0x40, 0x6e, 0xee, 0x3d,
  0x7e, 0x3c, 0x9f, 0x3d, 0x6e, 0x04, 0x10, 0x3c, 0x07, 0x8d, 0x8d, 0x3d,
  0x72, 0x52, 0xdf, 0x3d, 0xfb, 0xb3, 0xf4, 0x3d, 0x53, 0xfb, 0x93, 0xbc,
  0xfe, 0xfb, 0x9f, 0x3d, 0xb2, 0x99, 0xe7, 0x3d, 0x7d, 0x56, 0x9f, 0xbc,
  0x43, 0xad, 0xd7, 0x3c, 0x6b, 0x2b, 0x87, 0x3d, 0xe4, 0xcd, 0xec, 0x3d,
  0x6d, 0xa7, 0xc5, 0xbc, 0x13, 0x57, 0x19, 0x3e, 0x58, 0x4b, 0xe9, 0x3c,
  0xc3, 0x3d, 0x2f, 0x3d, 0x5b, 0x01, 0x18, 0x3c, 0xb7, 0x00, 0x88, 0x3b,
  0x03, 0xcb, 0x91, 0x3d, 0x80, 0x5e, 0x95, 0x3d, 0x8f, 0xec, 0xf1, 0x3d,
  0x8f, 0xab, 0xf9, 0x3c, 0xd3, 0x65, 0xd0, 0xbc, 0xb1, 0xbc, 0x98, 0x3d,
  0x0c, 0x13, 0xdc, 0x3d, 0x51, 0x04, 0x6d, 0xbc, 0xd8, 0xc4, 0xdf, 0x3c,
  0x5b, 0x36, 0xa7, 0xbc, 0x0e, 0x1a, 0x4d, 0xbb, 0x62, 0xb4, 0xdc, 0x3d,
  0xd5, 0x8a, 0x14, 0x3d, 0x1a, 0x90, 0xfd, 0xbc, 0x78, 0xe5, 0x5e, 0x3d,
  0x28, 0x1d, 0x96, 0x3d, 0x2a, 0xb1, 0x6a, 0x3d, 0x0b, 0xd2, 0x29, 0xbc,
  0x50, 0xd0, 0xd5, 0xbb, 0x54, 0x73, 0x84, 0xbb, 0x3d, 0xed, 0xa4, 0x3d,
  0x25, 0x8a, 0xf3, 0x3d, 0x6c, 0xb4, 0x8f, 0x3d, 0xce, 0x5d, 0x82, 0x3c,
  0x93, 0xb3, 0xae, 0x3d, 0x56, 0x93, 0x3a, 0xbb, 0x8d, 0x1c, 0x84, 0xbc,
  0xd9, 0xdf, 0x8c, 0xbc, 0xf2, 0x6f, 0x51, 0xbc, 0xb5, 0x17, 0xd1, 0x3d,
  0x2a, 0x6e, 0x83, 0xbd, 0xbf, 0x55, 0x20, 0x3e, 0x22, 0x02, 0xdc, 0x3d,
  0xda, 0x3f, 0xd7, 0x3d, 0x14, 0x66, 0xb2, 0x3d, 0xb2, 0x64, 0x1f, 0x3e,
  0x34, 0x87, 0x27, 0xbd, 0x04, 0x31, 0x01, 0x3e, 0x47, 0xde, 0x1b, 0x3e,
  0x6c, 0x75, 0x96, 0x3d, 0xd3, 0x1a, 0x6a, 0xbc, 0xa8, 0x97, 0x32, 0x3e,
  0x74, 0xef, 0x7b, 0xbd, 0x07, 0x96, 0x94, 0x3d, 0x1b, 0x5e, 0xd5, 0xbc,
  0x0e, 0x2c, 0x4b, 0xbd, 0xae, 0x82, 0x26, 0x3e, 0x23, 0xdd, 0x0a, 0x3d,
  0x04, 0x4e, 0x9f, 0x3d, 0x77, 0xe0, 0xd1, 0x3d, 0x28, 0x77, 0xa4, 0x3c,
  0x47, 0x8a, 0x5b, 0xbd, 0x0f, 0xcd, 0xc8, 0x3a, 0xc4, 0x56, 0xf3, 0x3a,
  0x0b, 0x35, 0x73, 0xbd, 0x78, 0x53, 0x04, 0x3e, 0x8e, 0x00, 0x16, 0x3e,
  0x59, 0xdb, 0xb6, 0xbd, 0xe1, 0xbf, 0x8c, 0xbb, 0x7d, 0xbb, 0xfe, 0x3d,
  0x66, 0x50, 0xa7, 0xbd, 0x72, 0x93, 0x51, 0x3d, 0xf0, 0xf2, 0x75, 0x3d,
  0x2b, 0x4b, 0xb1, 0xbc, 0x24, 0xbc, 0xde, 0x3d, 0x0e, 0x75, 0x4e, 0x3e,
  0x81, 0xc0, 0x48, 0xbd, 0x3e, 0x5c, 0xb4, 0x3d, 0x41, 0xfa, 0x21, 0x3e,
  0xf4, 0xd9, 0x81, 0xbd, 0xc0, 0xc7, 0xbd, 0x3c, 0x0c, 0xdf, 0x29, 0x3e,
  0x70, 0xf0, 0x9e, 0x3d, 0xce, 0xe9, 0x3c, 0x3d, 0xc4, 0xea, 0xc2, 0x3d,
  0x83, 0x9e, 0xb1, 0xbd, 0x9a, 0x52, 0xd7, 0x3d, 0x25, 0x13, 0x81, 0x3d,
  0x97, 0x0a, 0xb5, 0xbd, 0x9d, 0xd1, 0x2d, 0xbc, 0xe8, 0x2b, 0x4a, 0x3e,
  0xc7, 0x24, 0x81, 0xbd, 0x2e, 0x3f, 0xa0, 0x3d, 0x0b, 0x48, 0xe5, 0x3d,
  0x9c, 0x4e, 0xae, 0xbd, 0x2a, 0x30, 0x44, 0xbd, 0x08, 0xd5, 0x74, 0x3d,
  0x14, 0x2f, 0x21, 0x3d, 0x5e, 0xc1, 0x3f, 0xbd, 0x74, 0xff, 0xb3, 0x3d,
  0x51, 0x1c, 0xb0, 0xbc, 0x29, 0x20, 0x54, 0xbd, 0xea, 0x2d, 0x7e, 0x3c,
  0xe5, 0xfb, 0xb9, 0x3d, 0x69, 0x7a, 0x4c, 0xbd, 0xe7, 0xa7, 0x86, 0x3d,
  0x6a, 0x1f, 0x59, 0xbd, 0x9c, 0x94, 0x73, 0x3c, 0xce, 0x95, 0x15, 0x3d,
  0x69, 0xdd, 0xc9, 0xbd, 0x65, 0xca, 0x0a, 0x3c, 0x15, 0xa3, 0xdd, 0x3d,
  0x6c, 0xa3, 0xc2, 0xbd, 0x3d, 0xfd, 0x8e, 0xbc, 0x19, 0x20, 0xc2, 0x3d,
  0xb3, 0xc0, 0xa5, 0x3c, 0xe9, 0xa1, 0x8e, 0x3d, 0x57, 0x28, 0x20, 0x3e,
  0xac, 0x30, 0x71, 0x3d, 0xf4, 0x65, 0x1c, 0xbc, 0x96, 0x57, 0x1c, 0x3d,
  0x8e, 0xe9, 0x8b, 0x3d, 0xc6, 0xa1, 0xd5, 0x3d, 0xa1, 0x6d, 0x29, 0xbc,
  0x1b, 0x96, 0x77, 0x3d, 0xe8, 0x85, 0x9a, 0x3d, 0xc2, 0xf2, 0x44, 0xbc,
  0xc2, 0xc5, 0x05, 0xbd, 0x14, 0xc1, 0xdc, 0x3d, 0xfb, 0xab, 0xcd, 0x3d,
  0xfb, 0xe3, 0x8e, 0x3d, 0x02, 0x00, 0x43, 0x3d, 0xfd, 0x2e, 0xdc, 0x3c,
  0xde, 0xc0, 0x06, 0xbc, 0x8a, 0x33, 0x80, 0xbd, 0xcb, 0xa1, 0xe8, 0x3d,
  0x23, 0x38, 0xc1, 0x3d, 0x1c, 0x8b, 0x61, 0x3b, 0x38, 0xce, 0xd3, 0x3d,
  0xb0, 0xf7, 0x92, 0x3d, 0xb8, 0xf2, 0x6a, 0x3d, 0x8f, 0x3c, 0x97, 0x3d,
  0x54, 0xad, 0x97, 0xbd, 0xfc, 0x37, 0xb2, 0xbd, 0x4b, 0x9f, 0x13, 0x3d,
  0x48, 0x91, 0x39, 0x3d, 0xaf, 0x85, 0x35, 0xbd, 0xce, 0x44, 0x8a, 0x3d,
  0x81, 0x4f, 0x6e, 0xbd, 0x7f, 0xbd, 0xef, 0x3d, 0x33, 0xbd, 0xfa, 0x3c,
  0x81, 0xd8, 0x6d, 0xbd, 0xa0, 0x57, 0xb1, 0x3d, 0x03, 0x6a, 0xdb, 0xbd,
  0xc8, 0x17, 0x6d, 0x3d, 0x3d, 0xae, 0xbb, 0x3d, 0x66, 0x02, 0x86, 0xbc,
  0xcd, 0xf3, 0xac, 0x3c, 0xb1, 0xfc, 0x75, 0xba, 0x81, 0x32, 0x9b, 0x3c,
  0x26, 0xcf, 0x06, 0x3d, 0xae, 0x5a, 0xfb, 0x3d, 0x8d, 0x73, 0x49, 0xbd,
  0x16, 0xa1, 0xc6, 0x3d, 0x78, 0x16, 0xb4, 0x3d, 0xad, 0xe7, 0x1b, 0xbe,
  0x68, 0xe2, 0x0d, 0xbc, 0xe1, 0x59, 0x66, 0x3d, 0x93, 0x65, 0x79, 0xbd,
  0x1a, 0x60, 0x7a, 0xbc, 0x6a, 0x38, 0x4e, 0xbd, 0xac, 0x26, 0xee, 0xbc,
  0x67, 0x46, 0xc7, 0x3d, 0x3a, 0x47, 0xc2, 0xbc, 0xa7, 0x49, 0xfb, 0xbd,
  0xa3, 0x15, 0x3f, 0x3c, 0xde, 0xbd, 0xac, 0x3a, 0xd7, 0x2e, 0x42, 0xbd,
  0xbc, 0x66, 0xb0, 0x3c, 0xaa, 0x8d, 0x84, 0xbd, 0x1d, 0x59, 0xce, 0xbd,
  0x2c, 0x6a, 0xdd, 0x3d, 0x92, 0x00, 0xa3, 0x3d, 0xd1, 0xdc, 0x30, 0xbd,
  0x7b, 0x09, 0x86, 0xbc, 0xc2, 0xbf, 0x00, 0x3e, 0x84, 0xa0, 0x39, 0xbe,
  0x6b, 0x27, 0xe1, 0x3c, 0x05, 0x89, 0x01, 0xbd, 0x5e, 0x71, 0x80, 0xbd,
  0xe0, 0x98, 0x83, 0x3a, 0xb4, 0xcd, 0x60, 0x3d, 0x8d, 0x50, 0xd0, 0xbd,
  0x0e, 0xbb, 0x81, 0x3d, 0xfc, 0xa4, 0xb4, 0x3d, 0xfc, 0x1c, 0x86, 0xbd,
  0xe8, 0x5a, 0x34, 0xbd, 0xda, 0xbd, 0x15, 0x3c, 0xe2, 0xb4, 0x42, 0xbe,
  0x9a, 0x3b, 0xec, 0x3d, 0xa2, 0x6c, 0xe5, 0x3d, 0xde, 0xee, 0xab, 0xbd,
  0xf6, 0x29, 0x8c, 0xbc, 0x15, 0xaa, 0x6c, 0x3d, 0xa6, 0x8c, 0x4e, 0xbe,
  0x36, 0x9e, 0x72, 0x3d, 0x98, 0x73, 0x70, 0xba, 0x70, 0x9d, 0x0c, 0xbe,
  0xc7, 0x26, 0x84, 0xbd, 0x62, 0xd0, 0xaa, 0xbd, 0x15, 0xbd, 0x3b, 0xbe,
  0x92, 0xda, 0xa1, 0xbd, 0x5a, 0xc7, 0xab, 0xbd, 0xff, 0x22, 0xd2, 0xbd,
  0x80, 0x71, 0xcc, 0x3d, 0x80, 0x1a, 0x5c, 0xbd, 0xe3, 0x72, 0x37, 0xbe,
  0x29, 0x6d, 0x86, 0x3d, 0x11, 0xf3, 0x3c, 0xbd, 0xbc, 0x6f, 0x30, 0xbe,
  0x69, 0x6a, 0xca, 0x3c, 0x9e, 0x11, 0xb6, 0xbd, 0x2c, 0x27, 0x50, 0xbe,
  0x29, 0xca, 0xf4, 0xbc, 0xf7, 0x47, 0x8b, 0xbc, 0x97, 0x1a, 0x49, 0xbe,
  0x60, 0xd5, 0x60, 0xba, 0xd9, 0x6d, 0xb7, 0xbd, 0x45, 0x07, 0x0e, 0xbe,
  0x5a, 0xc5, 0x8f, 0x3d, 0x87, 0x0c, 0xf6, 0x3c, 0xf1, 0x58, 0x60, 0xbe,
  0xd2, 0xfa, 0x39, 0xbd, 0x43, 0x8a, 0x62, 0xbd, 0x36, 0x26, 0x00, 0xbe,
  0x53, 0x0a, 0x00, 0x3d, 0xc9, 0x4c, 0x38, 0x3e, 0x76, 0xfe, 0x43, 0x3e,
  0xd0, 0xd4, 0x62, 0x3b, 0x7a, 0x3e, 0x3d, 0x3e, 0x6f, 0x60, 0xaf, 0x3d,
  0xa6, 0xa5, 0xd0, 0xbc, 0xd6, 0x14, 0x00, 0x3e, 0x80, 0x67, 0xb6, 0x3d,
  0x49, 0x5a, 0x9c, 0x3d, 0xc7, 0x6e, 0x3f, 0x3e, 0x8f, 0xec, 0xaa, 0x3d,
  0x44, 0x98, 0x2e, 0x3d, 0x23, 0xb2, 0xd3, 0x3c, 0x4e, 0xa9, 0xb6, 0x3d,
  0x2c, 0x10, 0x8d, 0x3d, 0x9d, 0xe5, 0xa6, 0x3d, 0x48, 0xe1, 0x21, 0x3d,
  0x0d, 0x81, 0x20, 0x3d, 0x60, 0xac, 0x2c, 0x3e, 0x56, 0x45, 0x68, 0x3e,
  0x8c, 0x23, 0x78, 0x3d, 0x1d, 0x10, 0x39, 0x3e, 0xef, 0xf0, 0x19, 0x3e,
  0x94, 0x0a, 0xc9, 0xbd, 0x72, 0xc3, 0xe6, 0x3d, 0xa0, 0xb6, 0x4d, 0x3e,
  0x94, 0xcc, 0xc1, 0xbd, 0xbf, 0xb9, 0xc3, 0x3d, 0xe2, 0x42, 0x53, 0x3e,
  0x6c, 0x94, 0x28, 0x3d, 0xd0, 0x93, 0x5c, 0x3e, 0x5a, 0xfe, 0x5b, 0x3d,
  0xf0, 0x3b, 0x88, 0xbd, 0x7b, 0x1d, 0xbc, 0x3d, 0xf7, 0x06, 0x16, 0x3e,
  0xbd, 0x75, 0xb8, 0xbd, 0x9e, 0x17, 0x45, 0x3e, 0x5e, 0xe6, 0x1b, 0x3e,
  0x9e, 0xee, 0xa7, 0x3d, 0x36, 0x12, 0x3a, 0x3e, 0xa6, 0x2e, 0x89, 0x3d,
  0xd1, 0xe5, 0x3f, 0x3d, 0xc7, 0xb6, 0xed, 0x3d, 0xc5, 0x16, 0x1e, 0x3d,
  0xd8, 0x76, 0x2b, 0xbd, 0x10, 0x1c, 0x82, 0x3d, 0xbb, 0xb2, 0xd0, 0xbb,
  0x80, 0x1e, 0xe7, 0x3c, 0xe4, 0xd0, 0x06, 0x3e, 0xb3, 0x5d, 0x1b, 0x3d,
  0xf3, 0x7e, 0x56, 0x3d, 0x41, 0x18, 0xd1, 0xbc, 0x65, 0x24, 0x28, 0x3d,
  0x60, 0x48, 0xee, 0x3c, 0x22, 0xb5, 0x21, 0x3c, 0xd9, 0x26, 0x3d, 0x3d,
  0x78, 0xb0, 0xbf, 0x3d, 0xe5, 0x7d, 0x9d, 0x3c, 0x22, 0xd1, 0x9d, 0xba,
  0x64, 0x74, 0xb8, 0xbd, 0x91, 0x08, 0x2b, 0x3d, 0x27, 0x13, 0x6f, 0x3c,
  0x84, 0x4b, 0x0c, 0xbd, 0xee, 0x09, 0xc6, 0x3d, 0x2c, 0xa1, 0x0a, 0x3e,
  0x0e, 0x6e, 0xc5, 0x3d, 0x0c, 0x2c, 0xb6, 0x3c, 0x00, 0xf1, 0x9b, 0x3d,
  0xdb, 0x2b, 0x59, 0xbd, 0x1a, 0xd9, 0xc9, 0xbd, 0xbb, 0x2a, 0x92, 0x3d,
  0x7b, 0x2a, 0xb6, 0xbd, 0x59, 0x6d, 0x70, 0x3d, 0x32, 0xd3, 0x64, 0xbd,
  0xb0, 0x0e, 0x4c, 0x3d, 0x45, 0x35, 0xd7, 0x3d, 0xa3, 0x38, 0x07, 0x3d,
  0x0b, 0x69, 0x98, 0x3c, 0x1e, 0x54, 0xb4, 0x3d, 0x31, 0x1c, 0x9a, 0x3d,
  0x24, 0xd5, 0x24, 0xbc, 0xc8, 0x25, 0x28, 0xbd, 0xf6, 0xdf, 0xa4, 0x3c,
  0x7a, 0xf0, 0xc7, 0xbd, 0xf9, 0xea, 0xcd, 0xbd, 0xb3, 0xf4, 0xc2, 0x3d,
  0x57, 0x1d, 0xb6, 0xbd, 0x06, 0x1e, 0x63, 0x3d, 0x91, 0x0e, 0xe8, 0x3d,
  0x96, 0xee, 0xe2, 0xbb, 0x0d, 0x25, 0xcf, 0xbc, 0x04, 0x16, 0x1d, 0xbd,
  0x03, 0x41, 0xdc, 0xbc, 0xb0, 0x84, 0x3b, 0x3d, 0x4d, 0x03, 0x17, 0x3b,
  0xe5, 0x50, 0x27, 0x3d, 0xde, 0x9a, 0x58, 0xbd, 0xfb, 0xe7, 0xbc, 0x3d,
  0x5f, 0x69, 0x9f, 0x3d, 0x99, 0x3d, 0xe5, 0x3d, 0xff, 0x06, 0x90, 0x3d,
  0x6f, 0x62, 0xa7, 0xbd, 0x12, 0x38, 0x2d, 0x3d, 0x2f, 0x78, 0x5a, 0x3d,
  0x97, 0xdf, 0xd1, 0x3d, 0x4e, 0xd3, 0x20, 0xbd, 0x9d, 0xdc, 0x07, 0x3d,
  0xa8, 0xe2, 0x82, 0xbd, 0x11, 0xb9, 0x46, 0xbd, 0xcf, 0x6e, 0x4c, 0xbd,
  0x28, 0x66, 0xcc, 0x3d, 0xe0, 0xec, 0x48, 0xbd, 0x9c, 0xb5, 0xbe, 0xbd,
  0x4b, 0xc8, 0x05, 0xbc, 0x61, 0xc8, 0x02, 0xbd, 0x64, 0x5b, 0x94, 0x3c,
  0x83, 0x17, 0xc7, 0x3c, 0x5c, 0xea, 0xab, 0xbd, 0x55, 0x05, 0xb6, 0x3d,
  0x4e, 0x48, 0x9f, 0xbd, 0x3f, 0x2b, 0x83, 0x3d, 0x68, 0x5d, 0xfb, 0xbd,
  0xa7, 0x33, 0xb3, 0x3d, 0x1e, 0xf0, 0x57, 0x3d, 0xcb, 0xf6, 0x17, 0xbb,
  0xe4, 0x20, 0x36, 0xbc, 0x8b, 0x5d, 0x91, 0xbd, 0x82, 0x1a, 0x91, 0x3d,
  0x70, 0xe4, 0xc6, 0x3c, 0x39, 0xe0, 0x4d, 0x3c, 0xae, 0xc2, 0x98, 0xbd,
  0x12, 0xef, 0x52, 0x3d, 0xe2, 0x1c, 0xc5, 0xbc, 0x13, 0x50, 0x8c, 0x3c,
  0x4b, 0x9d, 0xbd, 0x3d, 0x45, 0x92, 0xde, 0x3d, 0x09, 0x93, 0x29, 0x3d,
  0x74, 0x70, 0x00, 0x3d, 0xd3, 0x06, 0xd0, 0x3d, 0xfc, 0xa5, 0x08, 0xbc,
  0x0e, 0xd2, 0x16, 0x3c, 0x9e, 0x31, 0x07, 0xbc, 0x24, 0x7f, 0x96, 0xbd,
  0xe8, 0xbc, 0xe8, 0x3d, 0xea, 0x52, 0x0d, 0x3d, 0xf6, 0x5f, 0x7e, 0x3d,
  0xc0, 0x39, 0x35, 0xbd, 0x01, 0x87, 0xb2, 0xbd, 0xd0, 0x93, 0x72, 0x3d,
  0xf2, 0x93, 0x70, 0xbc, 0xa6, 0x28, 0x26, 0xbd, 0xd2, 0x35, 0xb7, 0xbd,
  0xda, 0xc0, 0x43, 0x3d, 0x04, 0x9e, 0xe9, 0xbb, 0xb0, 0xe8, 0x53, 0xbd,
  0x04, 0x3e, 0x90, 0xbd, 0x5d, 0x02, 0x94, 0x3d, 0x5f, 0x93, 0x92, 0xbd,
  0x31, 0x2d, 0xf2, 0xbc, 0x2f, 0xca, 0xb9, 0xbd, 0x84, 0xa7, 0xdf, 0xbd,
  0x0b, 0x29, 0x2d, 0x3d, 0x51, 0x36, 0x16, 0x3d, 0xa9, 0xd7, 0xaf, 0xbd,
  0x69, 0xc8, 0x51, 0xbc, 0x9e, 0xc8, 0x9b, 0x3c, 0xcd, 0xc9, 0x74, 0x3d,
  0x4c, 0x77, 0x29, 0x3d, 0x68, 0xf7, 0x6f, 0xbc, 0xf9, 0xc2, 0xb2, 0x3b,
  0x1a, 0x19, 0x0b, 0x3c, 0x40, 0xc3, 0x44, 0x3d, 0x27, 0xcd, 0x54, 0xbd,
  0x5f, 0xd3, 0x7e, 0xbd, 0xda, 0x8e, 0xe1, 0x3d, 0xd7, 0x3b, 0xc6, 0xbc,
  0x43, 0x06, 0x92, 0x3d, 0x96, 0x12, 0x91, 0x3d, 0xc9, 0xde, 0x34, 0xbd,
  0x09, 0x42, 0xa6, 0xbc, 0xe4, 0x9c, 0x8b, 0x3d, 0x43, 0x67, 0x1d, 0x3d,
  0x05, 0xea, 0x31, 0xbd, 0xe9, 0x6a, 0x89, 0xbd, 0x2b, 0x1b, 0x8e, 0xbb,
  0x7f, 0xb5, 0x96, 0x3d, 0x6a, 0xd6, 0xb6, 0xbd, 0x05, 0xc8, 0xc2, 0x3d,
  0xd9, 0xa9, 0x3a, 0x3d, 0xfa, 0xc9, 0x26, 0xbd, 0xc3, 0xfa, 0xac, 0xbd,
  0x65, 0xa2, 0x62, 0xbd, 0xe2, 0x36, 0x76, 0xbd, 0x7a, 0xb8, 0xbe, 0xbc,
  0x73, 0xca, 0x8b, 0xbd, 0x07, 0x20, 0xe1, 0xbc, 0x54, 0x29, 0x8e, 0x3c,
  0x3b, 0x0b, 0xf5, 0x3c, 0xd1, 0x6d, 0x9d, 0x3d, 0x3e, 0x25, 0x87, 0x3d,
  0x75, 0x86, 0x76, 0x3d, 0x98, 0x9a, 0x1b, 0x3d, 0x12, 0x71, 0xd8, 0xbc,
  0x4c, 0x2c, 0xe0, 0x3d, 0x5c, 0x91, 0x81, 0xbd, 0x36, 0x87, 0x3e, 0x3d,
  0x97, 0xf8, 0x9f, 0x3d, 0xc8, 0x5e, 0x2a, 0x3d, 0x58, 0x96, 0x6c, 0xbd,
  0x88, 0x93, 0x8c, 0xbd, 0x97, 0x43, 0xa8, 0x3d, 0x43, 0xb1, 0xd5, 0x3d,
  0x6e, 0x45, 0x81, 0x3d, 0xc1, 0x43, 0xbf, 0xbd, 0x4c, 0x84, 0xd6, 0x3d,
  0xb6, 0xc6, 0x4d, 0x3c, 0x67, 0x08, 0xee, 0xbc, 0x3d, 0xfb, 0xf1, 0x3d,
  0xf5, 0x0a, 0x99, 0xbd, 0x65, 0x6d, 0x21, 0x3d, 0x34, 0xd7, 0x94, 0x3d,
  0x9e, 0xa5, 0x37, 0xbd, 0xc2, 0x60, 0xbb, 0xbd, 0x3e, 0xc0, 0x65, 0x3d,
  0x94, 0x99, 0x00, 0xbd, 0xbd, 0xb9, 0xdf, 0x3c, 0xac, 0xe1, 0x55, 0xbd,
  0xd9, 0x3e, 0x31, 0x3d, 0xc8, 0xd1, 0x00, 0xbc, 0xe6, 0x70, 0x8f, 0x3a,
  0xb9, 0xc6, 0x50, 0xbd, 0x60, 0x76, 0xd3, 0xbb, 0xb6, 0xcc, 0x13, 0xba,
  0xb8, 0x45, 0x8b, 0x3c, 0x41, 0xc9, 0x12, 0x3d, 0xd8, 0x0f, 0xd1, 0x3d,
  0x4a, 0xaf, 0x99, 0x3d, 0x8f, 0x65, 0xe5, 0xbd, 0x20, 0xa4, 0x65, 0x3d,
  0xba, 0x11, 0x17, 0xbd, 0x7f, 0x25, 0xcf, 0xbc, 0x28, 0x2b, 0x0a, 0xb9,
  0xda, 0xbf, 0xc0, 0xbd, 0x7e, 0xee, 0xb8, 0xbd, 0x14, 0x19, 0x9c, 0x3d,
  0x4f, 0xd1, 0x13, 0xbc, 0x7c, 0x6c, 0x96, 0x3c, 0xaa, 0xb3, 0xf5, 0xbc,
  0x5e, 0x27, 0x7a, 0xbd, 0x5a, 0xac, 0xb2, 0xbd, 0x26, 0x96, 0xcd, 0x3d,
  0x3e, 0xd8, 0x95, 0xbc, 0x24, 0x13, 0xd0, 0x3b, 0xb2, 0x53, 0x01, 0xbd,
  0x16, 0x4b, 0x6a, 0xbd, 0xac, 0x17, 0xf3, 0xbb, 0xba, 0x51, 0x03, 0x3d,
  0x15, 0x0a, 0x65, 0x3d, 0xd4, 0x5c, 0xbf, 0x3c, 0xbe, 0xdf, 0xc1, 0x3d,
  0x3d, 0x1b, 0x4f, 0xbd, 0x6c, 0xe4, 0x9f, 0xbd, 0x97, 0xe6, 0x12, 0xbc,
  0x0d, 0x53, 0xa8, 0x3c, 0x03, 0xe9, 0x65, 0x3d, 0xcc, 0x20, 0xc9, 0xbc,
  0x40, 0x5e, 0x0c, 0x39, 0x14, 0xa8, 0x17, 0x3b, 0x5c, 0xfc, 0xbf, 0x3d,
  0x93, 0x35, 0x0d, 0x3d, 0xfc, 0x82, 0x7b, 0x3c, 0x7d, 0x6b, 0xe6, 0xbb,
  0x8f, 0x05, 0xe9, 0xbc, 0xc7, 0x66, 0x67, 0xbd, 0x9e, 0x2a, 0x4c, 0x3d,
  0x3e, 0x8a, 0x63, 0x3c, 0x9b, 0x9e, 0x7d, 0x3d, 0x56, 0xd2, 0x00, 0x3e,
  0xc8, 0x3c, 0xa5, 0xbd, 0xf1, 0x58, 0xc8, 0xbd, 0xc7, 0x56, 0xb3, 0x3d,
  0xe8, 0x58, 0x98, 0x3d, 0x4a, 0x05, 0x61, 0xbc, 0x5f, 0xa4, 0x10, 0x3c,
  0x22, 0x0e, 0xa3, 0x3c, 0x03, 0xd7, 0x8d, 0xbd, 0x5c, 0x99, 0x27, 0x3c,
  0x15, 0xc3, 0xa1, 0xbc, 0x6f, 0x2b, 0x34, 0xbc, 0x8a, 0x29, 0x28, 0x3e,
  0x53, 0x14, 0xc2, 0xbd, 0x42, 0x7a, 0xe1, 0xbd, 0x68, 0xa9, 0x11, 0x3e,
  0x99, 0x97, 0x2b, 0x3d, 0xb7, 0x92, 0xbc, 0xbd, 0x55, 0x0e, 0x15, 0x3c,
  0xd4, 0x00, 0x3a, 0x3d, 0xc3, 0xf9, 0xc8, 0x3c, 0xf0, 0x23, 0xbe, 0x3d,
  0x74, 0x84, 0xf7, 0xbc, 0x57, 0xc4, 0x43, 0xbc, 0x51, 0xda, 0x83, 0x3d,
  0x9b, 0xa9, 0x49, 0xbd, 0xae, 0x66, 0x14, 0x3d, 0xc3, 0x55, 0xf3, 0x3d,
  0xdb, 0x8d, 0x2b, 0x3d, 0x76, 0x03, 0x26, 0xbc, 0xbc, 0xef, 0x90, 0x3d,
  0xd8, 0x9b, 0x1a, 0x3c, 0xb5, 0x3a, 0x17, 0x3d, 0xf8, 0x60, 0xdd, 0x3d,
  0xd5, 0x11, 0x67, 0xbd, 0xfb, 0xee, 0xdc, 0xbd, 0x0c, 0x50, 0x2e, 0x3e,
  0xaf, 0x39, 0x83, 0xbd, 0xb0, 0xb2, 0x2e, 0x3c, 0xb2, 0x1e, 0x65, 0x3d,
  0x95, 0xbc, 0x20, 0xbd, 0xdd, 0x03, 0x9d, 0xbc, 0x2c, 0x7a, 0x04, 0x3e,
  0x22, 0xc0, 0x17, 0xbb, 0x47, 0x50, 0x65, 0x3d, 0x41, 0xdc, 0x23, 0x3e,
  0xdc, 0xed, 0x8b, 0xbd, 0xff, 0x66, 0x0a, 0xbe, 0xd1, 0x48, 0xc7, 0x3c,
  0xce, 0x9d, 0xe3, 0xbb, 0x79, 0xdc, 0xfa, 0xbd, 0xfd, 0xf7, 0x14, 0xbc,
  0x6f, 0x72, 0xb5, 0xbd, 0x98, 0x38, 0x1a, 0x3c, 0xcd, 0x08, 0xf9, 0x3d,
  0x6c, 0x5a, 0x0a, 0xbd, 0xeb, 0x9a, 0x11, 0xbd, 0x5b, 0xf1, 0x11, 0x3e,
  0xf0, 0x41, 0xee, 0xbc, 0xef, 0xe0, 0xcb, 0x3c, 0xc1, 0xcb, 0x12, 0x3e,
  0x49, 0x7c, 0xe3, 0x3b, 0xa0, 0x0c, 0xd0, 0xbd, 0xbc, 0x6b, 0x58, 0x3d,
  0xd7, 0xf7, 0x23, 0xbd, 0x3c, 0x8d, 0x72, 0xbd, 0x79, 0x6d, 0x2a, 0x3d,
  0xf3, 0x2b, 0xd9, 0x3d, 0x6b, 0x43, 0x5d, 0x3d, 0x59, 0x7d, 0xe8, 0x3d,
  0x25, 0xb7, 0xdb, 0x3d, 0xb5, 0x43, 0x58, 0x3d, 0xe1, 0x8d, 0x0a, 0x3e,
  0xd1, 0xf3, 0xe1, 0xbc, 0x3c, 0x13, 0x43, 0xbd, 0xa9, 0x83, 0xa1, 0x3d,
  0xfa, 0xa2, 0xc7, 0xbb, 0x1f, 0x86, 0xe4, 0xbd, 0xd9, 0xb3, 0xc4, 0x3d,
  0xf4, 0xb9, 0x94, 0x3d, 0x05, 0x40, 0xa9, 0xbd, 0x45, 0x4c, 0x0a, 0x3e,
  0x62, 0x82, 0xc3, 0x3d, 0xdc, 0xae, 0xb7, 0x3b, 0xff, 0xbb, 0xaf, 0x3d,
  0x9c, 0xa0, 0x61, 0x3d, 0x27, 0x3c, 0x01, 0xbe, 0x5d, 0xa8, 0x05, 0x3d,
  0x1b, 0xa0, 0xab, 0xbd, 0x4a, 0x59, 0xe2, 0xbd, 0xde, 0x97, 0xce, 0xbd,
  0x4b, 0xaa, 0xba, 0xbd, 0x31, 0xf9, 0xbf, 0xbd, 0x4e, 0x9b, 0xbd, 0x3d,
  0xaf, 0x0b, 0x7a, 0xbd, 0x97, 0x50, 0xc7, 0x3c, 0x75, 0xf5, 0xa8, 0xbd,
  0xcb, 0x82, 0xc7, 0x3c, 0xfc, 0x83, 0xb4, 0x3b, 0x6c, 0x76, 0x01, 0x3d,
  0xda, 0x91, 0xde, 0x3c, 0xbe, 0x89, 0x38, 0xbd, 0xf2, 0x17, 0xc7, 0xbd,
  0x5e, 0x32, 0x5b, 0xbd, 0xd2, 0xaa, 0x1a, 0xbd, 0xa8, 0x31, 0xce, 0x3d,
  0x5f, 0xa5, 0x0d, 0x3c, 0x68, 0x29, 0xec, 0xbb, 0xe4, 0x5c, 0x67, 0x3b,
  0x12, 0xfa, 0x83, 0xbd, 0xbb, 0x38, 0x1a, 0x3c, 0xbc, 0x08, 0x8b, 0xbc,
  0xbc, 0xa7, 0xc6, 0xbd, 0xc7, 0x84, 0x8c, 0xbd, 0x3d, 0x59, 0x83, 0xbd,
  0x0f, 0x2b, 0x6d, 0xbd, 0x8c, 0x89, 0x59, 0x3c, 0x38, 0xe3, 0xd4, 0xbd,
  0x40, 0x12, 0x36, 0xbc, 0xb0, 0x00, 0xda, 0xbd, 0x02, 0x77, 0xb3, 0x3c,
  0x1a, 0x39, 0x44, 0xbd, 0xc4, 0x9a, 0xe4, 0xbb, 0x53, 0x7f, 0xe4, 0xbd,
  0x72, 0xe2, 0x3f, 0x3c, 0xfc, 0xbc, 0x81, 0x3d, 0x41, 0xc9, 0xa6, 0x3d,
  0x59, 0x7b, 0x96, 0xbc, 0x3b, 0xb7, 0xcd, 0xbd, 0x60, 0xc2, 0x8c, 0x3d,
  0x08, 0xc2, 0xa8, 0x3d, 0x25, 0x35, 0xb5, 0x3d, 0x60, 0x5a, 0x1e, 0x3c,
  0xd5, 0x16, 0x17, 0x3d, 0x41, 0x12, 0x09, 0x3d, 0x06, 0x27, 0x63, 0x3d,
  0x19, 0x9f, 0xa6, 0xbd, 0x5a, 0x7d, 0x32, 0xbd, 0xea, 0x4f, 0xf2, 0xbb,
  0x2a, 0x36, 0xaa, 0xbd, 0xd3, 0xd5, 0xa3, 0xbc, 0x06, 0x3a, 0xb3, 0xbd,
  0x31, 0x4d, 0x50, 0x3c, 0x4c, 0x44, 0xb2, 0x3c, 0x7b, 0x15, 0x5b, 0x3d,
  0xb5, 0x4d, 0xf2, 0x3b, 0x61, 0xe2, 0x1c, 0x3d, 0x23, 0x08, 0xcf, 0x3c,
  0x2a, 0x34, 0x6b, 0x3b, 0x41, 0xf0, 0x20, 0xbd, 0x62, 0x50, 0xc1, 0x3b,
  0x2f, 0x3a, 0x10, 0xbd, 0x81, 0x0a, 0x0b, 0x3d, 0x19, 0x68, 0x13, 0xbd,
  0xd8, 0x03, 0x6d, 0x3d, 0x83, 0x47, 0xe9, 0x3d, 0xf5, 0x78, 0xbe, 0xbd,
  0x30, 0x90, 0x08, 0xbd, 0x22, 0xcf, 0x8c, 0xbd, 0xd1, 0x7a, 0x1b, 0xbd,
  0xb0, 0xaf, 0xbf, 0x3d, 0x6a, 0x10, 0xe7, 0x3d, 0x36, 0x2a, 0x88, 0xbc,
  0xee, 0x9d, 0x79, 0xbc, 0x82, 0x1a, 0x28, 0xbd, 0x82, 0x1f, 0x32, 0xbd,
  0x59, 0xb8, 0xaa, 0xbd, 0xcb, 0x3e, 0x00, 0x3e, 0x10, 0xbf, 0xed, 0x3d,
  0x8a, 0xf4, 0x72, 0xba, 0x6d, 0xfb, 0xfc, 0x3d, 0x49, 0x68, 0x90, 0x3d,
  0x58, 0xaa, 0xd0, 0x3d, 0xb6, 0x04, 0x8d, 0xbd, 0xc5, 0x1b, 0x94, 0x3d,
  0x3a, 0xa1, 0xc5, 0x3b, 0x51, 0x1b, 0xb3, 0x3d, 0x1b, 0x3e, 0x90, 0x3d,
  0xd3, 0xe1, 0xa5, 0xbd, 0x99, 0xad, 0x2d, 0x3c, 0xb1, 0x2a, 0x61, 0xbd,
  0xfe, 0xf5, 0x7c, 0x3d, 0xdc, 0x97, 0xc0, 0x3c, 0x91, 0x09, 0x97, 0xbc,
  0x5c, 0xdd, 0x3e, 0xbc, 0xe4, 0x46, 0x93, 0xbc, 0x97, 0xc6, 0x27, 0x3d,
  0x6b, 0xc7, 0xd8, 0xbc, 0x20, 0x11, 0x06, 0x3e, 0xa8, 0x53, 0x3b, 0xbc,
  0x1f, 0xed, 0x4b, 0xbd, 0xe9, 0x8a, 0x22, 0x3e, 0xed, 0xfb, 0x9f, 0xba,
  0x2f, 0xd3, 0x0b, 0xbd, 0x0e, 0x06, 0x21, 0x3e, 0xd5, 0xa1, 0xd1, 0x3d,
  0xe5, 0xf2, 0xe8, 0x3a, 0x59, 0x66, 0xf4, 0x3d, 0xb8, 0x9a, 0xc7, 0xbb,
  0x64, 0xbc, 0xc3, 0xbc, 0xf4, 0x94, 0x6f, 0x3d, 0xba, 0x32, 0x07, 0x3d,
  0xa3, 0x20, 0xd5, 0x3d, 0xef, 0x50, 0x1c, 0x3e, 0x50, 0xf2, 0xbb, 0x3d,
  0x8f, 0x9b, 0x93, 0x3d, 0x42, 0x24, 0x2c, 0x3e, 0xd7, 0x5a, 0x0c, 0xbc,
  0x06, 0x93, 0x55, 0x3d, 0x8d, 0x82, 0xab, 0x3d, 0xa8, 0x9a, 0xa9, 0xbd,
  0x3e, 0x54, 0x30, 0xbd, 0x99, 0xa2, 0xc6, 0x3d, 0x7d, 0xcd, 0x14, 0x3d,
  0x5e, 0xc0, 0xf8, 0x3c, 0x5f, 0x8a, 0x57, 0x3d, 0x2d, 0x02, 0x8d, 0xbc,
  0x7e, 0x56, 0x8f, 0x3d, 0xe2, 0x21, 0x0c, 0x3e, 0xfe, 0xae, 0xb9, 0xbd,
  0xb5, 0x8f, 0xeb, 0x3d, 0xd5, 0xa1, 0xdd, 0x3d, 0x7e, 0xb9, 0x3a, 0xbc,
  0x2e, 0x2c, 0xd3, 0x3d, 0xa6, 0xe5, 0x47, 0x3e, 0xc8, 0x35, 0x89, 0xbd,
  0x11, 0x8d, 0x59, 0x3d, 0x73, 0xac, 0x9b, 0x3d, 0x4e, 0x1e, 0xe2, 0xbb,
  0x4a, 0xaf, 0x57, 0x3d, 0x9e, 0x7b, 0x34, 0x3e, 0xf5, 0xd5, 0x16, 0x3d,
  0x05, 0xc1, 0x39, 0xbc, 0x28, 0x79, 0x84, 0x3d, 0xd6, 0x43, 0x13, 0xbe,
  0xf8, 0x0f, 0xf7, 0x3d, 0x62, 0xd7, 0xf5, 0x3d, 0xf9, 0x37, 0x0e, 0xbe,
  0x29, 0x59, 0x86, 0xbd, 0x37, 0xf6, 0x26, 0x3e, 0x84, 0xa1, 0xf2, 0xbc,
  0x19, 0x36, 0x60, 0xbd, 0x09, 0xcb, 0x8c, 0x3c, 0xdf, 0x51, 0x0f, 0xbe,
  0x61, 0x11, 0x9e, 0x3d, 0xbf, 0x84, 0x9d, 0x3c, 0x0e, 0x5f, 0x0e, 0xbe,
  0x6f, 0x02, 0x9b, 0x3d, 0x02, 0x9c, 0x0d, 0x3e, 0x7d, 0x99, 0x48, 0x3d,
  0x48, 0xc3, 0xe2, 0x3d, 0xc1, 0x1f, 0x17, 0x3e, 0x4c, 0x2e, 0x0f, 0x3d,
  0x92, 0xc1, 0x52, 0xbd, 0x9c, 0xb4, 0x64, 0x3e, 0xd8, 0xa4, 0x10, 0x3d,
  0x0f, 0xa4, 0x55, 0x3d, 0x63, 0x70, 0x64, 0x3e, 0x0f, 0xbd, 0x58, 0xbd,
  0x2a, 0x5c, 0x3c, 0x3c, 0x9d, 0xd6, 0x22, 0x3e, 0x3f, 0x7c, 0x48, 0x3d,
  0x91, 0xe4, 0x37, 0xbd, 0xaa, 0x9b, 0x46, 0x3e, 0x18, 0x2b, 0x14, 0xbd,
  0xe1, 0xb3, 0xa2, 0xbd, 0x58, 0x2b, 0x5c, 0x3e, 0x56, 0x29, 0xf6, 0xbd,
  0xb8, 0x35, 0xe5, 0x3d, 0xa4, 0x6a, 0x21, 0xbd, 0xff, 0xfe, 0xa3, 0x3d,
  0x28, 0xca, 0xff, 0x3c, 0xdd, 0x77, 0x0f, 0xbc, 0xcc, 0xe7, 0xce, 0x3d,
  0x5d, 0x28, 0x9f, 0x3d, 0x56, 0x78, 0xe4, 0xbc, 0xf4, 0x5d, 0x2e, 0xbd,
  0xa5, 0x81, 0x4e, 0xbc, 0x57, 0x73, 0x8b, 0xbd, 0x46, 0x7c, 0x85, 0x3d,
  0x0e, 0xca, 0x2b, 0xbd, 0x0f, 0xec, 0x4c, 0x3c, 0xcf, 0x81, 0x7a, 0x3d,
  0x0d, 0x6e, 0x83, 0x3d, 0x00, 0xc5, 0xca, 0xbb, 0x43, 0xc4, 0x8a, 0xbd,
  0xe1, 0x58, 0xcb, 0x3d, 0x6c, 0x44, 0x8a, 0xbd, 0xfa, 0x0d, 0xb4, 0x3d,
  0x65, 0x03, 0xc3, 0xbc, 0x3c, 0x6b, 0xba, 0x3c, 0x5c, 0xa7, 0x2c, 0x3d,
  0x29, 0xb6, 0x17, 0xbd, 0xbb, 0x7d, 0xc9, 0xbd, 0x2f, 0x31, 0xbf, 0xbd,
  0xaa, 0xc4, 0x67, 0xbc, 0xcd, 0x8a, 0x1b, 0x3d, 0xc2, 0x56, 0x25, 0x3d,
  0xbc, 0x89, 0xbe, 0xbd, 0x21, 0x3e, 0x9b, 0x3a, 0x15, 0x7e, 0xc4, 0x3d,
  0x91, 0x34, 0xcd, 0xbd, 0xdb, 0x8c, 0xdf, 0x3c, 0x5b, 0xce, 0x07, 0x3d,
  0x55, 0xdb, 0xb8, 0xbd, 0xa8, 0x63, 0x34, 0x3d, 0xfb, 0xba, 0xd7, 0x3d,
  0x99, 0x79, 0xa9, 0x3d, 0x4d, 0xae, 0x8f, 0xbc, 0xa3, 0x6c, 0xc5, 0x3d,
  0xb3, 0xa9, 0x9e, 0x3d, 0x3c, 0x41, 0xd6, 0xbd, 0x51, 0xf7, 0xa8, 0xbd,
  0x5d, 0x19, 0x64, 0xbd, 0xdc, 0xef, 0xaa, 0xbc, 0x4b, 0xfb, 0xc0, 0x3d,
  0x18, 0xea, 0x84, 0x3d, 0x5f, 0x95, 0x47, 0x3d, 0x6a, 0x90, 0xa7, 0xbb,
  0x34, 0x78, 0xcc, 0x3d, 0x68, 0xdc, 0xa3, 0x3d, 0x9d, 0x86, 0x8b, 0x3d,
  0xfd, 0x98, 0xc8, 0xbd, 0xbc, 0x6a, 0xc6, 0x3d, 0x00, 0x6e, 0xc2, 0xbd,
  0x48, 0xf3, 0xa3, 0x3d, 0x15, 0x48, 0x75, 0x3d, 0x1a, 0x90, 0xa3, 0x3b,
  0x81, 0xfa, 0xc1, 0x3d, 0xf1, 0xb1, 0x3c, 0xbd, 0x7c, 0x8f, 0x28, 0x3d,
  0x65, 0x2e, 0x19, 0xbd, 0xd4, 0xff, 0x1a, 0x3c, 0x48, 0xd2, 0x1f, 0xbd,
  0x81, 0xa1, 0x8d, 0xbd, 0x06, 0x32, 0x95, 0xbb, 0x39, 0x2e, 0x70, 0xbc,
  0xda, 0x09, 0x98, 0xbc, 0x85, 0x92, 0xb8, 0x3d, 0x85, 0xf2, 0xe6, 0xbc,
  0xde, 0xd2, 0x75, 0x3c, 0x0d, 0x13, 0x95, 0xbd, 0xc3, 0x48, 0x38, 0x3d,
  0xcd, 0x28, 0x2f, 0x3d, 0x02, 0x67, 0x36, 0xbc, 0x94, 0x4a, 0x39, 0x3d,
  0x0d, 0x41, 0x56, 0xbc, 0x14, 0xb4, 0x52, 0x3a, 0x16, 0xc2, 0xb9, 0xbd,
  0x0c, 0x7c, 0x00, 0xbd, 0x9e, 0x1b, 0x8c, 0xbd, 0xcf, 0xe8, 0x63, 0xbc,
  0x20, 0xad, 0x7e, 0x3d, 0xd0, 0x77, 0x9d, 0x3d, 0x9f, 0x1b, 0xf4, 0x3c,
  0xd7, 0x85, 0x86, 0xbd, 0xbd, 0x53, 0xb8, 0x3c, 0x9b, 0x27, 0xcc, 0xbc,
  0x05, 0x69, 0x21, 0x3d, 0xf7, 0x25, 0x6c, 0xbd, 0x31, 0x61, 0xc0, 0xbd,
  0xb8, 0x0b, 0x3e, 0xbd, 0x56, 0xfe, 0x04, 0x3d, 0x46, 0xa9, 0xcf, 0xbd,
  0x5a, 0xb7, 0x3b, 0xbd, 0xed, 0xf3, 0xc6, 0x3c, 0x1c, 0xef, 0x99, 0xbd,
  0xf8, 0x7c, 0xab, 0x3d, 0xa5, 0xe7, 0x93, 0xbd, 0x27, 0xce, 0x36, 0x3d,
  0xfa, 0xb4, 0xb6, 0x3d, 0xe8, 0x6e, 0xce, 0xbd, 0xc3, 0x2c, 0x23, 0xbd,
  0x29, 0x11, 0x79, 0xbd, 0xc9, 0xbc, 0x1b, 0xbd, 0x58, 0xd5, 0x04, 0x3d,
  0xae, 0x06, 0x5c, 0x3d, 0x53, 0xaa, 0x2a, 0x3d, 0x75, 0x2a, 0xbf, 0xbd,
  0xec, 0xc3, 0x91, 0xbd, 0xd9, 0x17, 0xc4, 0xbd, 0xc3, 0x03, 0xc2, 0xbd,
  0xfb, 0xd8, 0xdb, 0x3c, 0x5a, 0x0a, 0xc8, 0xbd, 0x4e, 0x7e, 0x65, 0xbd,
  0xcc, 0x51, 0xc6, 0xbd, 0xe6, 0x62, 0xd2, 0xbd, 0xf1, 0xa3, 0xa9, 0x3c,
  0xbe, 0x6e, 0xb8, 0xbb, 0xe2, 0x55, 0xf6, 0x3c, 0x8a, 0x14, 0xbe, 0xbd,
  0x16, 0x40, 0xaf, 0xbc, 0x4f, 0xb4, 0x22, 0x3d, 0xc1, 0xee, 0x12, 0xbd,
  0xb8, 0x99, 0xd5, 0xbc, 0x27, 0xdb, 0x48, 0xbd, 0xa6, 0x8d, 0x9c, 0xbb,
  0xca, 0xb0, 0x89, 0xbd, 0xc3, 0xa4, 0xa1, 0x3d, 0x82, 0xde, 0xa4, 0xbd,
  0xcd, 0x5d, 0x14, 0xbd, 0x58, 0xdc, 0x83, 0x3d, 0x54, 0x10, 0xe3, 0xbb,
  0xab, 0xed, 0x87, 0xbd, 0x60, 0x2f, 0x84, 0xbc, 0x80, 0xb2, 0x70, 0xbd,
  0x47, 0xe9, 0xa7, 0x3d, 0x62, 0x81, 0x10, 0x3d, 0xc4, 0x39, 0x77, 0x3d,
  0x76, 0xa4, 0xc3, 0x3d, 0x31, 0x3a, 0x75, 0xbd, 0xba, 0x02, 0x7a, 0x3d,
  0x14, 0x9a, 0xd0, 0x3a, 0x9e, 0xa2, 0x37, 0xbd, 0x4e, 0x04, 0xd8, 0xbd,
  0xa7, 0x14, 0x91, 0xbd, 0xa9, 0x30, 0xbd, 0xbd, 0xad, 0x29, 0xbf, 0x3d,
  0x65, 0x5b, 0xa9, 0x3b, 0x60, 0x02, 0x04, 0x3d, 0x37, 0xfb, 0xb3, 0xbd,
  0x32, 0xcf, 0x92, 0xbc, 0xb2, 0xb4, 0x01, 0x3d, 0xdc, 0x33, 0xa9, 0xbb,
  0x01, 0xf0, 0x39, 0x3d, 0x68, 0x2d, 0x69, 0x3d, 0xee, 0x00, 0xf5, 0x3c,
  0xc3, 0x39, 0xce, 0xbd, 0x36, 0xf1, 0xcf, 0xbd, 0xb9, 0x22, 0xc7, 0x3d,
  0xae, 0x71, 0xbe, 0xbc, 0x89, 0x23, 0x44, 0x3d, 0x58, 0x61, 0x4e, 0x3d,
  0xae, 0x84, 0xa7, 0xbd, 0xc4, 0xa9, 0x0e, 0x3b, 0xe0, 0x96, 0xae, 0xbd,
  0x68, 0xe8, 0xb6, 0xbd, 0x02, 0xce, 0x93, 0xbd, 0xc4, 0x8a, 0x43, 0x3d,
  0x6b, 0xd7, 0xa0, 0x3d, 0xc4, 0xcd, 0x92, 0x3d, 0x4a, 0xe0, 0xde, 0x3c,
  0xa3, 0xf4, 0xc3, 0xbc, 0x79, 0x45, 0xbd, 0x3d, 0x3d, 0xd7, 0x9d, 0x3d,
  0x84, 0xc2, 0x82, 0xbd, 0xdd, 0x64, 0x63, 0xbd, 0x22, 0x5c, 0x61, 0x3d,
  0x56, 0x56, 0x98, 0x3d, 0xed, 0xb9, 0xa4, 0xbd, 0x72, 0x49, 0x3a, 0x3c,
  0x05, 0x45, 0xd5, 0xbd, 0x83, 0xa3, 0x82, 0x3d, 0xee, 0xa9, 0xc6, 0xbd,
  0x25, 0xc9, 0xa6, 0xbd, 0xb2, 0xb0, 0x42, 0x3d, 0xac, 0x49, 0x5a, 0xbd,
  0x1c, 0xa4, 0x66, 0xbc, 0x85, 0x46, 0x87, 0xbd, 0xea, 0x8c, 0x53, 0xbd,
  0x62, 0x4d, 0x94, 0xbd, 0xbc, 0xfd, 0x9f, 0xbd, 0x5e, 0xc8, 0x7e, 0xbd,
  0x0d, 0x37, 0xc8, 0x3c, 0x3a, 0xc2, 0xd8, 0xbc, 0xab, 0xa3, 0x9a, 0xbc,
  0x70, 0x12, 0x9c, 0xbd, 0x9f, 0x96, 0xcc, 0x3c, 0x58, 0xbb, 0x6b, 0x3d,
  0x15, 0x73, 0xb9, 0x3d, 0x09, 0x0d, 0x55, 0x3d, 0x63, 0x01, 0xb8, 0xbd,
  0xda, 0xbf, 0x94, 0xbc, 0xf2, 0xdf, 0xac, 0xbd, 0x51, 0x12, 0x11, 0xbd,
  0x2b, 0x9e, 0x90, 0x3d, 0x41, 0x40, 0xa8, 0xbc, 0xc7, 0x9d, 0xa2, 0xbc,
  0x68, 0x75, 0xdd, 0x3b, 0x48, 0x6b, 0xc6, 0xbd, 0x04, 0x89, 0xad, 0xbd,
  0xb2, 0x33, 0xc3, 0x3d, 0x25, 0x0e, 0x92, 0x3d, 0x58, 0x26, 0xc0, 0xbd,
  0x18, 0x42, 0x24, 0xbd, 0x37, 0x48, 0x9d, 0xbd, 0x95, 0x6e, 0x80, 0x3d,
  0x7e, 0x91, 0xa6, 0x3c, 0xaf, 0x7c, 0xa7, 0xbc, 0x4a, 0x99, 0xc2, 0xbd,
  0xe7, 0xc5, 0x2d, 0x3b, 0xab, 0x34, 0xad, 0xbb, 0xb0, 0xf4, 0x87, 0x3d,
  0xc9, 0x4a, 0x81, 0x3d, 0x1c, 0x09, 0xfc, 0x3c, 0x9c, 0x5d, 0x2b, 0x3c,
  0x77, 0x5f, 0x4b, 0xbd, 0xbe, 0x9d, 0xaf, 0x3c, 0xc6, 0x0e, 0xae, 0x3d,
  0x6e, 0xd1, 0xb0, 0xbc, 0x23, 0xff, 0x80, 0x3d, 0xf5, 0xa4, 0xb1, 0x3c,
  0xa4, 0x96, 0x92, 0x3d, 0x45, 0xd8, 0xc0, 0xbd, 0xe2, 0xa6, 0xd5, 0x3c,
  0x58, 0xec, 0xc0, 0x3d, 0xae, 0xf6, 0x97, 0xbd, 0xb4, 0x25, 0x41, 0xbd,
  0x39, 0xd8, 0xc0, 0x3d, 0x57, 0xc9, 0x82, 0xbd, 0xe3, 0xe2, 0x33, 0x3d,
  0xb0, 0x25, 0x94, 0x3d, 0xa6, 0xc2, 0x4b, 0x3b, 0x37, 0x1b, 0x9a, 0x3d,
  0x28, 0x2d, 0xe1, 0x3c, 0xa4, 0xf1, 0x48, 0x3d, 0xdc, 0xa1, 0x9b, 0x3c,
  0xfc, 0x16, 0xcd, 0x3d, 0x5a, 0xbd, 0xca, 0xbd, 0x7a, 0x4e, 0xc4, 0xbd,
  0xb2, 0xd3, 0x68, 0xbd, 0x97, 0x59, 0x7b, 0xbd, 0x8f, 0x67, 0xd9, 0xbd,
  0x08, 0x28, 0x20, 0x3d, 0xe1, 0x91, 0xa8, 0xbd, 0xe4, 0xbc, 0x4e, 0x3d,
  0x8e, 0x0a, 0xaf, 0xbd, 0xcc, 0xfb, 0xf1, 0xbc, 0x2a, 0xa1, 0xac, 0x3d,
  0xaf, 0xf3, 0x07, 0x3b, 0x7b, 0xa4, 0xdc, 0xbb, 0xbe, 0xdd, 0xf1, 0x3c,
  0x58, 0xf2, 0x83, 0x3d, 0x3d, 0x96, 0xb1, 0x3d, 0xcf, 0xf4, 0xb0, 0x3d,
  0x99, 0x6b, 0xb2, 0xbc, 0xdd, 0x66, 0x73, 0x3b, 0x5a, 0xbe, 0xed, 0xba,
  0x34, 0x6c, 0xa1, 0xbc, 0x92, 0x4c, 0x4e, 0x3c, 0x3e, 0xde, 0xa3, 0x3d,
  0x7f, 0xd0, 0x47, 0xbd, 0x1c, 0xf6, 0xdc, 0xbc, 0x37, 0x4b, 0xce, 0xbd,
  0x4f, 0xa2, 0x8f, 0x3d, 0xf0, 0xf8, 0x65, 0x3d, 0x83, 0xa9, 0x99, 0xbc,
  0xbf, 0x1e, 0x77, 0xbd, 0x16, 0x76, 0x46, 0xbd, 0x42, 0xbf, 0x8f, 0xbb,
  0xca, 0xbc, 0x42, 0xbd, 0x68, 0x64, 0x37, 0x3d, 0xe6, 0x84, 0xf9, 0x3b,
  0xb6, 0xbd, 0x9f, 0x3d, 0x25, 0xd8, 0x8e, 0xbc, 0xd7, 0x79, 0xcc, 0xbd,
  0x97, 0xfa, 0x53, 0xbd, 0x44, 0xdf, 0x81, 0xbd, 0xff, 0x30, 0x33, 0xbd,
  0x18, 0xf2, 0xcb, 0xbd, 0xf3, 0x00, 0x4a, 0xbd, 0x53, 0xcd, 0x28, 0xbd,
  0x99, 0x75, 0xaa, 0xbd, 0x02, 0x0b, 0x0d, 0x3c, 0x91, 0x0e, 0xb9, 0x3d,
  0x8c, 0xbf, 0x7c, 0xbc, 0xc9, 0xfa, 0xf8, 0xbc, 0x08, 0xf8, 0x90, 0x3d,
  0x2a, 0x64, 0x21, 0x3d, 0x6a, 0xaa, 0x88, 0x3d, 0x41, 0x1f, 0xbe, 0xbd,
  0x87, 0x38, 0xc1, 0x3d, 0x2f, 0x96, 0xb6, 0xbc, 0x04, 0x9f, 0x52, 0x3d,
  0xa4, 0x08, 0x46, 0xbd, 0x48, 0x86, 0x58, 0xbd, 0x87, 0x9a, 0x38, 0xbc,
  0xd2, 0x48, 0x8b, 0x3d, 0x83, 0xd1, 0xc6, 0xbd, 0x16, 0x46, 0x1d, 0xbd,
  0xba, 0x4f, 0xdf, 0x3c, 0x16, 0x43, 0x43, 0x3d, 0xa3, 0x2d, 0xb8, 0x3d,
  0x5a, 0x08, 0x1b, 0x3d, 0x01, 0xac, 0x92, 0x3d, 0x13, 0xe5, 0xd8, 0x3c,
  0xed, 0x5b, 0xae, 0xbd, 0xcc, 0xb9, 0x64, 0xbd, 0xce, 0x68, 0xe9, 0xbc,
  0x5e, 0x5c, 0x5a, 0xbd, 0x8f, 0xa7, 0x0e, 0xbd, 0xdf, 0x18, 0xa6, 0xbd,
  0x24, 0x64, 0xbc, 0xbd, 0x5b, 0x1f, 0xcb, 0xbd, 0x40, 0xa4, 0x1b, 0xbd,
  0x2f, 0x4c, 0x4b, 0xbd, 0x12, 0x11, 0xfc, 0x3c, 0x1e, 0x45, 0x21, 0xbc,
  0x12, 0x73, 0x91, 0xbd, 0xe7, 0x7d, 0x72, 0xbd, 0x2d, 0x37, 0xbd, 0xbd,
  0x2d, 0xdb, 0xaa, 0xbc, 0x06, 0xcd, 0xca, 0x3c, 0x2c, 0xf3, 0xb3, 0xbd,
  0x89, 0x35, 0x9a, 0xbd, 0xbe, 0xeb, 0x9c, 0xbd, 0x15, 0x83, 0x2a, 0x3d,
  0x38, 0x43, 0xa5, 0x3d, 0xc6, 0x09, 0x99, 0x3d, 0xb4, 0x4b, 0x0c, 0x3c,
  0x53, 0xc8, 0x37, 0xbd, 0x00, 0x3e, 0x4c, 0x3d, 0x9e, 0xae, 0xcb, 0x3d,
  0xd6, 0xc7, 0x4b, 0x3d, 0x78, 0x67, 0xb5, 0x39, 0x4a, 0xf9, 0xa3, 0xbd,
  0xdb, 0xee, 0x10, 0x3c, 0x1e, 0x6d, 0x9a, 0xbd, 0xdd, 0x90, 0x3b, 0xbd,
  0x59, 0xeb, 0x15, 0x3c, 0xb7, 0x95, 0xa2, 0xbd, 0x80, 0x7a, 0xa6, 0x3d,
  0xc6, 0x9c, 0xc7, 0x3c, 0xbf, 0x61, 0x79, 0xbd, 0x10, 0xcf, 0xce, 0x3d,
  0x83, 0x0d, 0xc7, 0x3d, 0xbc, 0xb3, 0xf8, 0x3c, 0x6f, 0xf9, 0x89, 0xbd,
  0x07, 0x69, 0xc1, 0x3d, 0x8e, 0x6b, 0x9c, 0xbd, 0x1d, 0xcb, 0xa7, 0x3d,
  0x66, 0x4d, 0xb3, 0x3c, 0x2d, 0x60, 0x99, 0xbd, 0xdb, 0x1b, 0x8f, 0xbc,
  0x86, 0x72, 0xb9, 0x3d, 0x9e, 0x0f, 0x9e, 0xbd, 0xc8, 0x2f, 0xa4, 0xbb,
  0x03, 0x3f, 0x2e, 0x3c, 0x02, 0x6c, 0x2c, 0xbd, 0x32, 0xf7, 0x99, 0xbb,
  0xae, 0xd1, 0xbf, 0xbd, 0x2d, 0x02, 0xa0, 0x3d, 0xaa, 0x30, 0xfc, 0x3a,
  0x53, 0x4f, 0x91, 0xbc, 0x3a, 0x84, 0xb3, 0xbd, 0x39, 0x14, 0xa2, 0xbd,
  0x15, 0x10, 0xb8, 0xbd, 0x90, 0x20, 0xc5, 0xbd, 0xc2, 0xd6, 0x87, 0xbd,
  0x44, 0x2f, 0xbf, 0xbc, 0xd7, 0xc0, 0xc7, 0x3d, 0xd8, 0x56, 0x0e, 0x3d,
  0xf4, 0xc6, 0x70, 0x3c, 0x9d, 0x0c, 0xd2, 0xbd, 0xd9, 0x3a, 0x1f, 0xbd,
  0x54, 0xad, 0x73, 0xbc, 0x08, 0x4b, 0x26, 0x3d, 0xfb, 0x14, 0x5a, 0xbb,
  0x0c, 0x8d, 0x7c, 0x3d, 0xa2, 0x1c, 0x96, 0x3d, 0xb1, 0x9b, 0xa1, 0xbd,
  0x51, 0x15, 0x16, 0x3d, 0x8e, 0xdf, 0x8c, 0x3d, 0x3f, 0x6c, 0x9e, 0x3c,
  0x96, 0x64, 0x25, 0x3c, 0x28, 0xe9, 0xc4, 0x3d, 0x13, 0x20, 0xbb, 0x3d,
  0x91, 0x04, 0x64, 0x3d, 0xeb, 0xd7, 0x2c, 0x3d, 0x67, 0x48, 0x47, 0xbd,
  0x8d, 0xcc, 0x94, 0x3d, 0x9e, 0x39, 0xac, 0xba, 0x71, 0x98, 0x7b, 0x3d,
  0xa0, 0x34, 0xa4, 0x3d, 0x59, 0x14, 0xc8, 0x3d, 0x36, 0xa2, 0x2d, 0x3d,
  0x57, 0xd8, 0x15, 0xbd, 0x86, 0xb8, 0x62, 0x3d, 0xba, 0x74, 0xa6, 0xbd,
  0x86, 0x4d, 0xcc, 0xbd, 0x3f, 0xe5, 0x41, 0xbb, 0x3a, 0xac, 0x96, 0xbd,
  0xbc, 0xc3, 0x85, 0xba, 0x04, 0xb4, 0x1f, 0xbc, 0x1c, 0x94, 0x8c, 0x3d,
  0xac, 0xc5, 0x00, 0x3d, 0xcc, 0xc0, 0x70, 0x3c, 0x40, 0x2d, 0xdf, 0xbc,
  0xcc, 0x7a, 0xc9, 0x3d, 0x7e, 0xff, 0xb7, 0xbd, 0x44, 0x74, 0xc2, 0x3d,
  0x63, 0x1f, 0x74, 0xbb, 0x08, 0xa9, 0x52, 0xbd, 0x08, 0x99, 0xe4, 0x3c,
  0x90, 0xc5, 0x0e, 0x3c, 0x71, 0x16, 0xb1, 0x3d, 0x82, 0xbc, 0xb5, 0xbd,
  0x1d, 0x0a, 0x98, 0xbd, 0xca, 0x74, 0x6b, 0xbd, 0x3d, 0xac, 0x4c, 0xbd,
  0xe0, 0x2d, 0x2c, 0x3d, 0x41, 0x08, 0x5e, 0x3d, 0x17, 0x48, 0xb3, 0xbd,
  0x17, 0xda, 0x87, 0x3d, 0x93, 0x6b, 0x3c, 0x3c, 0xa9, 0x16, 0x5f, 0xbd,
  0xe8, 0xc6, 0xa2, 0x3d, 0xe8, 0x8c, 0xac, 0x3d, 0x3f, 0x46, 0x1d, 0xbc,
  0xee, 0xa5, 0x95, 0xbd, 0x33, 0xd1, 0xb9, 0x3d, 0xfe, 0x76, 0x1a, 0xbd,
  0x90, 0xde, 0x3c, 0x3d, 0x35, 0xf7, 0xc0, 0xbc, 0x4e, 0x9e, 0xb6, 0x3d,
  0xfb, 0x35, 0x3f, 0x3d, 0xc4, 0x65, 0xb1, 0xba, 0x85, 0xbe, 0x2e, 0xbd,
  0x28, 0x94, 0x20, 0xbd, 0x00, 0xd4, 0x04, 0xb8, 0x31, 0xfc, 0xe5, 0x3c,
  0xe4, 0xc5, 0x83, 0x3d, 0x46, 0x01, 0x0b, 0x3d, 0x19, 0xd5, 0xac, 0x3d,
  0x55, 0x8b, 0xa4, 0x3d, 0xd5, 0x79, 0x8c, 0xbd, 0xae, 0x08, 0x88, 0x3c,
  0x58, 0x57, 0xc2, 0xbd, 0x3e, 0xe6, 0xd0, 0x3b, 0x32, 0x72, 0xc1, 0xbb,
  0xc9, 0x2f, 0xb2, 0x3d, 0x0d, 0x4a, 0x9d, 0xbd, 0xf7, 0x2b, 0x08, 0x3d,
  0x4c, 0x4d, 0x4c, 0x3c, 0xd3, 0x84, 0x01, 0xbd, 0xc9, 0xc0, 0x7e, 0xbd,
  0xa8, 0x97, 0x25, 0xbd, 0x89, 0xac, 0xc8, 0xbd, 0x18, 0x3c, 0xb1, 0xbb,
  0xd9, 0x1f, 0xb3, 0xbd, 0x24, 0x82, 0x64, 0xbd, 0xf8, 0xd1, 0x29, 0x3b,
  0x65, 0x96, 0xcd, 0x3d, 0x73, 0xb9, 0x80, 0x3c, 0xa5, 0x82, 0xfd, 0xbc,
  0xd6, 0xf3, 0x71, 0x3d, 0x51, 0xa0, 0xbd, 0xbd, 0xc5, 0xe5, 0x54, 0xbd,
  0x58, 0xb4, 0xbd, 0xbd, 0xf2, 0x77, 0x93, 0xbd, 0xf9, 0xba, 0x3b, 0x3d,
  0xd7, 0x50, 0x58, 0xbd, 0xdc, 0xb7, 0x2e, 0xbd, 0x86, 0x4b, 0x51, 0x3c,
  0x7c, 0xa3, 0x42, 0x3b, 0x25, 0xd5, 0x4a, 0x3c, 0x0f, 0x01, 0x41, 0x3d,
  0xc8, 0x27, 0xb7, 0xbc, 0xae, 0xf7, 0x22, 0x3d, 0x46, 0x14, 0x13, 0x3d,
  0x35, 0xa1, 0x48, 0x3d, 0xb8, 0x32, 0x16, 0xbd, 0x18, 0xe2, 0xae, 0x3d,
  0xbb, 0x21, 0xa0, 0xbd, 0x32, 0xa9, 0x6d, 0x3d, 0x76, 0x94, 0x77, 0xbd,
  0xf3, 0x24, 0xb7, 0xbc, 0x06, 0xdb, 0x85, 0xbd, 0xac, 0x09, 0x4c, 0x3c,
  0x8c, 0x14, 0xd1, 0xbd, 0x58, 0x78, 0xb3, 0xbd, 0x21, 0xa7, 0xca, 0xbc,
  0xbf, 0x8b, 0x9f, 0x3d, 0x51, 0xff, 0xb6, 0xbd, 0x1a, 0xc2, 0xb7, 0x3d,
  0x23, 0xff, 0xa4, 0xbc, 0x7b, 0x7d, 0xcf, 0x3d, 0x9f, 0x84, 0xc7, 0x3c,
  0x66, 0xed, 0xf1, 0x3c, 0x5b, 0xb8, 0xc1, 0x3d, 0xb6, 0x16, 0x14, 0xbd,
  0xf4, 0x80, 0xc0, 0xbd, 0x25, 0x4b, 0x86, 0x3d, 0x08, 0x70, 0xb8, 0xb9,
  0xc6, 0x1f, 0xc0, 0x3d, 0xca, 0x63, 0xb0, 0x3c, 0x4f, 0x61, 0x74, 0xbc,
  0x6a, 0x45, 0x9d, 0x3b, 0x6d, 0x1c, 0x1b, 0x3d, 0x0a, 0x4a, 0x47, 0x3c,
  0x0d, 0xca, 0x48, 0xbd, 0xc4, 0x2c, 0x8f, 0x3d, 0x6c, 0x3f, 0x44, 0x3c,
  0xda, 0xe2, 0x2f, 0x3d, 0x9d, 0xba, 0xc7, 0xbd, 0x51, 0x8e, 0x94, 0x3d,
  0x04, 0x10, 0xaa, 0xbd, 0x69, 0x62, 0xbb, 0x3c, 0x86, 0x0e, 0x85, 0xbd,
  0x37, 0x57, 0xa4, 0x3d, 0xfd, 0xf2, 0xaa, 0xbd, 0x64, 0x28, 0xa5, 0x3d,
  0xc4, 0xb8, 0xa0, 0xbd, 0xa9, 0xf9, 0x7f, 0x3d, 0xe2, 0x43, 0x77, 0x3c,
  0x0d, 0x76, 0x92, 0x3d, 0x16, 0x6a, 0x18, 0x3d, 0xce, 0x85, 0x90, 0x3d,
  0x72, 0xe4, 0x23, 0xbd, 0x4b, 0x17, 0x83, 0xbd, 0xd0, 0x89, 0x0a, 0xbd,
  0x1e, 0x58, 0x84, 0xbd, 0xbd, 0x29, 0xb9, 0xbd, 0x60, 0xf2, 0x68, 0x3c,
  0xfb, 0x34, 0x99, 0x3d, 0x3a, 0x9c, 0xf3, 0x3c, 0xce, 0x18, 0x91, 0x3d,
  0x52, 0xc3, 0x24, 0xbd, 0x72, 0x6e, 0xf5, 0x3c, 0x48, 0xc0, 0x31, 0xbd,
  0x6c, 0xa6, 0x34, 0x3d, 0x94, 0x1f, 0xab, 0x3d, 0xe6, 0xf8, 0xaf, 0xbd,
  0xfc, 0xe2, 0xb3, 0xbd, 0xfe, 0x53, 0x5f, 0xbd, 0x2b, 0x74, 0x81, 0x3d,
  0xfb, 0x60, 0x50, 0x3d, 0x3f, 0xf1, 0xc2, 0x3d, 0x17, 0xa7, 0x31, 0x3b,
  0xd1, 0x94, 0xaf, 0xbd, 0x75, 0x52, 0xb1, 0x3d, 0x7c, 0x31, 0xb1, 0xbd,
  0x16, 0x00, 0x7a, 0x3d, 0xdf, 0xa1, 0xb8, 0xbd, 0x66, 0x9d, 0x1b, 0xbd,
  0x4a, 0x60, 0x7c, 0x3c, 0x08, 0x35, 0x40, 0x3d, 0x54, 0xfd, 0x4d, 0x3d,
  0x12, 0x25, 0xa4, 0x3d, 0xa6, 0x0c, 0x54, 0xbd, 0xf4, 0xcc, 0xba, 0xbd,
  0x6a, 0x22, 0xde, 0xbd, 0x52, 0x2c, 0x75, 0x3d, 0xd2, 0xb4, 0x37, 0xbb,
  0xbc, 0x7d, 0xb3, 0x3d, 0xc7, 0xbf, 0x1f, 0x3d, 0xc0, 0xe9, 0xf5, 0x3c,
  0x82, 0x88, 0x42, 0x3d, 0x27, 0xd9, 0xac, 0xbd, 0x3b, 0x54, 0xda, 0x3d,
  0x2f, 0xc2, 0x82, 0xbb, 0xee, 0x37, 0x69, 0xbd, 0x18, 0x0a, 0x11, 0x3d,
  0xcc, 0xcc, 0xfd, 0x3c, 0xa6, 0x5a, 0xb9, 0x3d, 0x67, 0x81, 0xfe, 0x3b,
  0xd0, 0xd6, 0x02, 0xbd, 0x0c, 0x82, 0xa6, 0xbd, 0xc9, 0xd2, 0x73, 0xbd,
  0x26, 0xf9, 0xad, 0xbd, 0x59, 0xba, 0x91, 0x3d, 0xc5, 0x21, 0xb9, 0xbd,
  0xd4, 0x4b, 0xc9, 0xba, 0x39, 0x47, 0xbd, 0x3d, 0xe6, 0x6f, 0x52, 0xbc,
  0x32, 0xfc, 0x97, 0xbb, 0x1e, 0xa9, 0xa7, 0x3d, 0xe8, 0xad, 0x12, 0x3c,
  0x09, 0xfe, 0x37, 0x3b, 0xd0, 0x30, 0x29, 0x3c, 0x3e, 0x68, 0x0e, 0xbd,
  0xeb, 0x2b, 0x68, 0xbd, 0x81, 0x79, 0x4d, 0x3d, 0x63, 0xfe, 0x24, 0xbd,
  0x75, 0xe2, 0xc8, 0xbc, 0x96, 0x05, 0xc2, 0x3d, 0xac, 0x7b, 0xc4, 0x3d,
  0xcb, 0xc9, 0xc6, 0x3d, 0xcf, 0xcf, 0x78, 0x3b, 0xa4, 0xa4, 0xf9, 0x3a,
  0x62, 0xeb, 0x97, 0x3d, 0xe2, 0xe0, 0x98, 0xbd, 0x10, 0xdb, 0x93, 0x3c,
  0x19, 0x3e, 0xb8, 0xbd, 0x0a, 0xca, 0x27, 0x3d, 0x77, 0x74, 0xbe, 0x3d,
  0xca, 0xf4, 0x5f, 0xbd, 0x2c, 0x0f, 0x0d, 0xbd, 0x2c, 0x77, 0x7b, 0xbd,
  0xb5, 0xcf, 0x4c, 0x3d, 0xca, 0xed, 0xa9, 0x3c, 0x9f, 0xb4, 0x91, 0xbd,
  0xca, 0x12, 0xa7, 0xbd, 0x23, 0xfd, 0x94, 0x3d, 0xa5, 0xb2, 0xbf, 0x3c,
  0x9b, 0x71, 0xd0, 0xbd, 0x82, 0xca, 0x78, 0x3d, 0xd8, 0x9c, 0xdc, 0x3c,
  0x51, 0x35, 0x76, 0xbd, 0xcf, 0xe8, 0x84, 0xbd, 0xd7, 0xb9, 0xa9, 0x3d,
  0xf5, 0x16, 0xc7, 0x3d, 0x90, 0x10, 0x0f, 0x3c, 0xf1, 0x8a, 0x09, 0xbd,
  0x6c, 0x02, 0xa6, 0xbd, 0x01, 0xa4, 0x80, 0xbd, 0xf6, 0x54, 0xc0, 0x3d,
  0x62, 0x3c, 0x9e, 0xbd, 0xa3, 0x81, 0xc7, 0xbd, 0x6e, 0x87, 0xb1, 0x3b,
  0xed, 0xa5, 0xa9, 0x3d, 0xcc, 0xeb, 0xb6, 0xbd, 0x5c, 0xe4, 0xcb, 0x3d,
  0x8f, 0x36, 0x91, 0x3d, 0x71, 0xe7, 0xe7, 0xbc, 0x66, 0xd3, 0x8e, 0x3d,
  0xb2, 0x0d, 0xc4, 0xbd, 0x6d, 0x07, 0x7a, 0x3d, 0x16, 0x33, 0x82, 0xbd,
  0x2e, 0xfd, 0x90, 0xbb, 0x82, 0xca, 0xbc, 0xbd, 0xcc, 0x1d, 0x04, 0xbd,
  0x7b, 0x71, 0x4d, 0xbd, 0xd9, 0x79, 0xd5, 0xbd, 0x4c, 0x80, 0x2a, 0xbc,
  0x7b, 0x6d, 0x78, 0x3d, 0xa4, 0x06, 0x44, 0x3d, 0x3e, 0x45, 0x6e, 0x3c,
  0x16, 0xc5, 0x8c, 0x3c, 0x44, 0xf8, 0x82, 0xbd, 0x2e, 0x78, 0x6a, 0xbd,
  0x8b, 0x9c, 0x76, 0xbd, 0xa7, 0x36, 0x4f, 0xbd, 0xda, 0xa4, 0xab, 0x3d,
  0x11, 0xdd, 0x3a, 0xbd, 0x34, 0xf2, 0xbf, 0xbd, 0xda, 0xfd, 0xbb, 0x3d,
  0xa6, 0x4b, 0xaa, 0x3d, 0x83, 0x06, 0x60, 0xbd, 0x70, 0xea, 0x5b, 0x3d,
  0x26, 0xbe, 0xa1, 0xbd, 0x98, 0x9b, 0x26, 0x3b, 0x10, 0x99, 0x8e, 0x3d,
  0x9a, 0x83, 0xb1, 0x3d, 0x50, 0x04, 0x0b, 0xbc, 0x65, 0x1a, 0x69, 0x3c,
  0x95, 0x8a, 0x76, 0x3c, 0xf4, 0x5f, 0xcc, 0xbc, 0x1a, 0x20, 0xca, 0xbc,
  0x88, 0x5e, 0xda, 0xbd, 0xb2, 0x0f, 0xc4, 0xbc, 0x2c, 0xa1, 0x14, 0x3c,
  0x4e, 0x0d, 0xa0, 0xbc, 0x8f, 0xf4, 0xb7, 0xbd, 0xd2, 0x29, 0x7c, 0xbb,
  0xe1, 0xd1, 0x57, 0xbd, 0x4d, 0x97, 0x16, 0x3d, 0x31, 0x2a, 0x68, 0xbd,
  0xff, 0xbb, 0x84, 0x3d, 0xc7, 0x35, 0xdb, 0xbd, 0x15, 0x5c, 0xdd, 0xbc,
  0xe0, 0x9a, 0xee, 0x3b, 0xf6, 0x6e, 0x2b, 0xbc, 0x22, 0x6c, 0x70, 0xbd,
  0x16, 0xfc, 0x9d, 0xbd, 0xc8, 0xf5, 0x01, 0x3c, 0xdd, 0x1a, 0xc9, 0x3d,
  0xef, 0x21, 0x20, 0x3d, 0x16, 0x12, 0xaf, 0x3c, 0x60, 0xb5, 0x7c, 0x3d,
  0x99, 0x2e, 0x1b, 0x3d, 0x3b, 0xaf, 0xad, 0x3d, 0x63, 0x28, 0xa0, 0xbc,
  0x33, 0x6c, 0x5d, 0xbd, 0x4b, 0xf0, 0x7e, 0x3d, 0xef, 0xdc, 0x0c, 0xbd,
  0xea, 0xa2, 0xcf, 0xbd, 0xb5, 0x6d, 0xa9, 0x3d, 0xa7, 0xf7, 0x02, 0xbd,
  0x46, 0xc3, 0x8c, 0x3d, 0x2a, 0xe9, 0xd5, 0xbd, 0x44, 0x91, 0x88, 0xbc,
  0xf9, 0xd2, 0x3e, 0x3d, 0x89, 0x84, 0x8e, 0xbd, 0x0d, 0x3b, 0x4a, 0xbd,
  0x50, 0x83, 0xe7, 0xb9, 0xdb, 0xab, 0x75, 0xbd, 0x6b, 0x45, 0x1e, 0xbc,
  0x9a, 0x73, 0xb9, 0x3d, 0x26, 0x16, 0xd7, 0x3b, 0x8e, 0x30, 0x3d, 0xbd,
  0x7d, 0x52, 0x9f, 0xbd, 0x8a, 0x4b, 0x06, 0x3d, 0xdc, 0xbc, 0x50, 0xbd,
  0xfd, 0x70, 0xc8, 0x3d, 0x55, 0xef, 0xcf, 0xbd, 0x78, 0xfb, 0x94, 0xbb,
  0x5f, 0x45, 0xc5, 0x3d, 0x0b, 0x38, 0x88, 0xbd, 0x79, 0x1f, 0x9e, 0x3d,
  0x73, 0x7e, 0xda, 0xbd, 0x3a, 0xdb, 0xfa, 0xbc, 0x4b, 0x6e, 0x92, 0x3d,
  0xb5, 0xa9, 0x19, 0x3d, 0xee, 0x49, 0xfc, 0x3c, 0x89, 0x78, 0x1c, 0xbd,
  0xbb, 0xd4, 0x1e, 0xbd, 0x30, 0x9c, 0xbe, 0xbd, 0xfb, 0xcc, 0x88, 0xbd,
  0x92, 0xb8, 0x97, 0x3b, 0x72, 0xc8, 0xb4, 0xbd, 0x5c, 0xba, 0xab, 0x3c,
  0x2e, 0x61, 0xeb, 0x3b, 0x6a, 0x13, 0x31, 0xbd, 0xdf, 0x36, 0x8f, 0x3d,
  0x63, 0xff, 0x89, 0xbd, 0xd5, 0x81, 0xcb, 0x3d, 0x35, 0x9a, 0xa4, 0xbd,
  0xe7, 0xad, 0x12, 0xbc, 0x9c, 0xc6, 0x9d, 0x3d, 0x44, 0x83, 0xa8, 0xbd,
  0x1e, 0x45, 0x91, 0xbc, 0x55, 0xd3, 0x9f, 0x3d, 0x94, 0x01, 0xc5, 0x3d,
  0xc6, 0xe5, 0x9a, 0xbd, 0xaa, 0xf0, 0xb6, 0x3d, 0x46, 0x7d, 0x24, 0x3c,
  0xef, 0xf4, 0xbb, 0x3d, 0xe4, 0xf2, 0x5e, 0x3d, 0xdb, 0xe9, 0x9d, 0xbc,
  0x76, 0xa1, 0xe8, 0x3c, 0xc6, 0x6b, 0x3f, 0x3d, 0x03, 0xec, 0x9d, 0x3d,
  0x7e, 0x06, 0x1e, 0x3d, 0x63, 0x68, 0x87, 0xbd, 0x03, 0x2e, 0x3b, 0x3d,
  0xa3, 0x2a, 0x8d, 0xbd, 0xba, 0xec, 0xb9, 0xbd, 0x06, 0x1c, 0xd8, 0x3c,
  0xa6, 0xe9, 0x9c, 0x3d, 0x90, 0xaa, 0x81, 0xbd, 0xa7, 0x59, 0xcf, 0xbd,
  0x55, 0x9f, 0x09, 0xbd, 0x46, 0x20, 0x83, 0xbd, 0x0d, 0x26, 0x5b, 0xbd,
  0x8d, 0x26, 0x84, 0x3d, 0x9a, 0x18, 0xc3, 0xbd, 0xe4, 0xf3, 0x33, 0xbd,
  0x60, 0x2a, 0x07, 0xbd, 0x46, 0x8a, 0xee, 0xbc, 0xfb, 0x5b, 0x3e, 0x3d,
  0xf7, 0xeb, 0x99, 0xbd, 0x06, 0xe6, 0x12, 0xbd, 0xb1, 0x5e, 0xa1, 0x3d,
  0x2d, 0x22, 0x95, 0xbd, 0xfd, 0x30, 0x78, 0x3d, 0x1c, 0x38, 0xc9, 0xbd,
  0x7c, 0xe4, 0xb7, 0x3c, 0xa0, 0x27, 0x85, 0x3d, 0x05, 0xed, 0xaa, 0x3c,
  0x24, 0x1b, 0x77, 0xbd, 0xd0, 0xe9, 0x85, 0xbd, 0x98, 0xec, 0xd8, 0xbd,
  0xbe, 0xbd, 0x36, 0x3d, 0x5f, 0xc4, 0xa1, 0x3d, 0x3b, 0x9e, 0x75, 0xbd,
  0x94, 0x70, 0x99, 0xbd, 0x24, 0x72, 0x5e, 0xbb, 0xed, 0xc5, 0xa4, 0x3d,
  0x2c, 0x9d, 0xc6, 0xbd, 0x2e, 0xb1, 0xdd, 0x3c, 0x96, 0xe3, 0x88, 0x3d,
  0xf2, 0x7f, 0xda, 0x3c, 0xbd, 0xf4, 0xaf, 0x3c, 0x89, 0x17, 0xde, 0xbd,
  0x6f, 0x98, 0xfa, 0x3c, 0x6e, 0xef, 0x73, 0xbc, 0xec, 0x97, 0x31, 0x3c,
  0x99, 0x3a, 0x46, 0xbd, 0x54, 0x0e, 0x9a, 0xbc, 0xf6, 0x2c, 0x2f, 0x3d,
  0x1e, 0x4b, 0xe1, 0x3c, 0x41, 0x93, 0x0e, 0xbd, 0x78, 0xc7, 0x28, 0xbd,
  0x00, 0xf6, 0x7a, 0xbd, 0x21, 0x7f, 0xbb, 0x3c, 0x7e, 0xfe, 0x58, 0xbc,
  0xcc, 0xbf, 0xd8, 0xbd, 0x2e, 0x8c, 0x40, 0xbc, 0x76, 0xc6, 0x76, 0x3d,
  0xbd, 0x0d, 0x96, 0x3d, 0x10, 0xad, 0xbe, 0xbd, 0xd4, 0xbf, 0x4d, 0xbd,
  0xdb, 0x6c, 0x85, 0xbd, 0x4c, 0x6f, 0x9b, 0xbd, 0x60, 0x0b, 0x4a, 0xbd,
  0xf0, 0x24, 0xc0, 0x3d, 0x11, 0x13, 0xbd, 0x3d, 0xf2, 0x1a, 0xe0, 0xbc,
  0x4a, 0x8d, 0x14, 0x3d, 0x41, 0xbf, 0x09, 0xbd, 0xe4, 0xcc, 0x97, 0x3d,
  0x74, 0x4d, 0x4f, 0xbd, 0xe7, 0x22, 0x82, 0xbd, 0x5b, 0xf9, 0x42, 0x3d,
  0xd2, 0xbd, 0xbd, 0x3d, 0x67, 0x4e, 0x37, 0xbd, 0x72, 0x39, 0x0c, 0x3c,
  0xe7, 0x51, 0x0e, 0xbd, 0x67, 0x54, 0x1d, 0xbd, 0x16, 0x67, 0x14, 0xbd,
  0xea, 0xba, 0x97, 0xbd, 0xb6, 0x39, 0xb8, 0xbd, 0xd0, 0xa1, 0xd9, 0xbd,
  0x0e, 0x6b, 0xb2, 0xbd, 0xa7, 0xe4, 0xc8, 0xbd, 0x6a, 0x30, 0x85, 0xbd,
  0x3d, 0x94, 0xc8, 0x3d, 0x00, 0xf2, 0x9c, 0xbd, 0x81, 0x24, 0x96, 0xbd,
  0xe0, 0xc3, 0x79, 0x3d, 0x01, 0x56, 0x9c, 0x3b, 0x18, 0x70, 0x0b, 0xbc,
  0xce, 0x43, 0x51, 0x3c, 0xcc, 0x82, 0x67, 0xbd, 0x74, 0x93, 0x06, 0x3d,
  0xe5, 0x41, 0x08, 0xbd, 0xbc, 0x97, 0x1b, 0x3b, 0x7f, 0xe8, 0xcb, 0xbb,
  0xba, 0xb6, 0x66, 0xbd, 0xd6, 0x64, 0xb4, 0xbd, 0x65, 0x91, 0xa6, 0xbc,
  0x86, 0xc0, 0xaa, 0xbd, 0x83, 0x43, 0xb3, 0xbd, 0x0e, 0x69, 0x35, 0xbd,
  0x57, 0xb5, 0xb0, 0x3d, 0x92, 0x7b, 0xc7, 0x3d, 0xe9, 0xa9, 0xe7, 0xbc,
  0x86, 0x2d, 0x69, 0xbd, 0x22, 0xcb, 0x8d, 0xbd, 0x5c, 0xad, 0xca, 0x3d,
  0x34, 0x86, 0xba, 0x3c, 0x5f, 0xf6, 0xc2, 0x3d, 0xf3, 0xfa, 0x81, 0xbd,
  0xfb, 0x57, 0x4d, 0x3d, 0x2a, 0x6e, 0xaf, 0x3d, 0x0e, 0x2e, 0xd3, 0xbc,
  0x09, 0x18, 0x78, 0xbd, 0x92, 0x01, 0xae, 0x3d, 0x4c, 0xf1, 0x99, 0xbd,
  0x7e, 0x64, 0x13, 0x3d, 0xbd, 0x63, 0x84, 0x3d, 0x61, 0xf2, 0xa6, 0x3d,
  0xf8, 0x2d, 0xae, 0xbd, 0x40, 0x86, 0x95, 0xbd, 0x19, 0x51, 0xa1, 0x3d,
  0xa0, 0xf8, 0x72, 0x3d, 0x12, 0x50, 0x4d, 0x3d, 0x57, 0x4a, 0x2e, 0x3d,
  0xae, 0xab, 0xf8, 0xbb, 0x07, 0x29, 0xad, 0xbd, 0x19, 0xb6, 0x04, 0x3d,
  0x96, 0x53, 0x21, 0x3d, 0xde, 0x96, 0x4a, 0x3b, 0x27, 0xc9, 0x68, 0xbc,
  0xdf, 0x74, 0xc5, 0x3d, 0xa8, 0xe7, 0xa1, 0xbd, 0xa6, 0x7d, 0x15, 0xbd,
  0x77, 0xc2, 0x2d, 0xbd, 0x7a, 0x47, 0x8d, 0x3a, 0x11, 0x5e, 0x9c, 0xbd,
  0x7f, 0x30, 0x1a, 0xbc, 0x83, 0x08, 0xaf, 0x3d, 0xfe, 0xac, 0x00, 0xbc,
  0xae, 0xe9, 0x0e, 0xbc, 0x16, 0xba, 0x12, 0xbd, 0xa9, 0x96, 0xcf, 0x3d,
  0xfa, 0xde, 0x95, 0xbc, 0xa4, 0xac, 0x37, 0xbc, 0xa1, 0x0a, 0xa5, 0x3c,
  0xbc, 0xd4, 0x7f, 0x3d, 0x71, 0x90, 0x51, 0x3d, 0x78, 0x23, 0x97, 0x3d,
  0x16, 0x8f, 0xab, 0x3b, 0x7a, 0x7a, 0x99, 0x3d, 0xb7, 0xbe, 0xc0, 0x3d,
  0x5a, 0x99, 0x43, 0xbc, 0xb9, 0x06, 0x81, 0x3d, 0x08, 0x75, 0x91, 0x3d,
  0x8b, 0x14, 0xe3, 0x3c, 0x8d, 0x0e, 0x30, 0x3d, 0x96, 0x0c, 0x8f, 0x3d,
  0x9e, 0xaa, 0x51, 0x3d, 0x8e, 0x1a, 0x9c, 0xbc, 0x40, 0xa6, 0xda, 0x3d,
  0x45, 0x64, 0xa7, 0x3c, 0xfe, 0x54, 0x6d, 0x3d, 0x00, 0x21, 0xa7, 0x3c,
  0x5a, 0x67, 0x71, 0xbd, 0xbc, 0x25, 0xf4, 0x3b, 0x34, 0x48, 0x42, 0xbd,
  0xe8, 0xe9, 0x57, 0x3d, 0x7c, 0xcd, 0xb4, 0xbd, 0xcd, 0x2b, 0x7e, 0xbc,
  0x8f, 0x03, 0x8d, 0xbd, 0xc8, 0xb6, 0xa5, 0xb9, 0x62, 0xdf, 0x80, 0x3d,
  0x63, 0x99, 0xd4, 0xbd, 0xc3, 0x71, 0x87, 0x3d, 0x6c, 0x95, 0x0c, 0xbd,
  0x20, 0x98, 0xa3, 0x3d, 0xc8, 0x50, 0x99, 0x3d, 0xbf, 0x67, 0x2b, 0xbd,
  0x3f, 0x90, 0x90, 0xbd, 0x2d, 0xac, 0x41, 0x3d, 0x53, 0xbb, 0x40, 0x3b,
  0xb6, 0xb6, 0xcc, 0xbb, 0xcb, 0x09, 0xa2, 0x3c, 0xd6, 0x55, 0x23, 0x3d,
  0x61, 0xc2, 0xe6, 0x3c, 0xa6, 0x41, 0xa7, 0xbd, 0xd1, 0x45, 0x83, 0x3d,
  0xc6, 0xb0, 0xaa, 0x3d, 0x91, 0x9d, 0x7b, 0xbd, 0xbd, 0x4a, 0x32, 0x3d,
  0x2c, 0x0f, 0x9a, 0x3d, 0xc0, 0x82, 0xcc, 0xbd, 0x31, 0x6f, 0xb1, 0x3d,
  0x1f, 0xe9, 0xae, 0x3d, 0xab, 0x3d, 0xb2, 0xbd, 0x83, 0xfa, 0x98, 0x3d,
  0x58, 0xbd, 0x8a, 0xbd, 0x28, 0x28, 0xc2, 0x3b, 0xdf, 0x10, 0x97, 0x3d,
  0x44, 0x64, 0x25, 0x3d, 0xdf, 0xcf, 0xb7, 0x3d, 0xc1, 0xfc, 0xbc, 0x3d,
  0xce, 0x72, 0xb5, 0xbc, 0x41, 0xa6, 0x88, 0x3d, 0x0a, 0xbb, 0x58, 0xbd,
  0xa2, 0x01, 0x9b, 0x3a, 0x73, 0x69, 0x85, 0xbd, 0x1a, 0x94, 0x8d, 0xbd,
  0xeb, 0x1e, 0xdb, 0xbd, 0xee, 0x3a, 0xcd, 0x3c, 0x85, 0xfa, 0x0e, 0xbd,
  0xf3, 0x5e, 0xb5, 0x3d, 0x33, 0xb4, 0x77, 0xbd, 0x48, 0xc9, 0xa0, 0x3d,
  0xc1, 0x6c, 0x46, 0x3d, 0x6a, 0xd7, 0xa6, 0x3d, 0xe7, 0xdc, 0x35, 0xbb,
  0x58, 0x10, 0x86, 0x3d, 0x6f, 0x34, 0x9d, 0xbd, 0x0b, 0x43, 0x0a, 0x3d,
  0x3d, 0x1f, 0x68, 0xbd, 0xcd, 0xff, 0x94, 0x3c, 0x2b, 0xe0, 0x22, 0x3d,
  0xb9, 0x4e, 0x2d, 0x3d, 0x9b, 0x12, 0x58, 0x3d, 0xb5, 0x99, 0xc6, 0x3c,
  0x7b, 0xb2, 0x98, 0x3d, 0xb5, 0x92, 0xa8, 0xbc, 0xca, 0x5f, 0x6b, 0x3c,
  0x5c, 0x1e, 0x5c, 0xbc, 0x7e, 0xc1, 0x17, 0xbc, 0x88, 0x63, 0x8a, 0xbc,
  0x27, 0xb1, 0x0a, 0xbd, 0x4c, 0x27, 0x91, 0xbd, 0x99, 0x0b, 0xe6, 0x3b,
  0x4a, 0x01, 0x94, 0x3c, 0x15, 0xfe, 0xc6, 0xbd, 0x9b, 0x8c, 0x0b, 0x3d,
  0xd3, 0xb7, 0xae, 0x3d, 0x54, 0x69, 0xf4, 0x3c, 0x97, 0x53, 0xb7, 0xbd,
  0xa8, 0x4b, 0xed, 0xba, 0x14, 0x90, 0xcf, 0xbc, 0x88, 0xe2, 0x43, 0xbd,
  0x7b, 0x7d, 0x1d, 0xbd, 0x83, 0xed, 0xb7, 0xbc, 0xc1, 0x22, 0x3e, 0xbd,
  0x3a, 0xc5, 0xb1, 0xbc, 0x9a, 0x3a, 0xd3, 0xbd, 0x37, 0xe5, 0xb6, 0x3d,
  0x3e, 0xf4, 0x88, 0xbd, 0x48, 0x5c, 0x45, 0xbd, 0x4e, 0x2b, 0x3a, 0xbc,
  0x91, 0x65, 0x84, 0xbc, 0x1a, 0x27, 0x80, 0xbc, 0x15, 0xae, 0xdb, 0x3c,
  0xe9, 0x9d, 0x4e, 0x3c, 0xdb, 0xc5, 0x8f, 0xbd, 0x44, 0xb9, 0xa4, 0x3d,
  0xbe, 0x70, 0x40, 0x3d, 0x09, 0x23, 0x2f, 0x3b, 0xe1, 0xeb, 0x89, 0x3d,
  0x10, 0xca, 0xd0, 0xbd, 0xea, 0x50, 0xe8, 0x3c, 0x98, 0x26, 0x98, 0xbc,
  0x27, 0x86, 0xbe, 0x3c, 0x72, 0xad, 0xa7, 0xbd, 0xe6, 0xcc, 0xc2, 0x3d,
  0x10, 0xbc, 0xfe, 0xbb, 0x11, 0x3b, 0x65, 0xbd, 0x6a, 0x68, 0x59, 0x3d,
  0x7c, 0xd6, 0x8c, 0x3d, 0xc5, 0x0e, 0x1b, 0x3d, 0x16, 0x40, 0x52, 0x3d,
  0xa4, 0x8a, 0x8e, 0xbd, 0xbf, 0xc3, 0x0a, 0xbd, 0xff, 0xfb, 0x2a, 0x3d,
  0x8d, 0x9c, 0xc9, 0x3c, 0x66, 0x63, 0x25, 0x3d, 0x45, 0xbe, 0x80, 0xbc,
  0x02, 0x1d, 0xc2, 0x3d, 0x10, 0xd0, 0x62, 0x3c, 0x11, 0xe3, 0x82, 0xbd,
  0x02, 0x9a, 0xe2, 0x3c, 0x93, 0x3e, 0xad, 0xbd, 0x59, 0x83, 0x6d, 0x3d,
  0xa0, 0x5e, 0x14, 0xbd, 0xa5, 0x9f, 0x7a, 0x3d, 0xe7, 0xb0, 0x46, 0x3d,
  0xa2, 0x1f, 0xcb, 0xbd, 0x92, 0x12, 0x96, 0x3d, 0xa2, 0x23, 0x90, 0x3c,
  0x84, 0xef, 0x7f, 0xbd, 0xc7, 0xfa, 0xe2, 0xbc, 0x89, 0x5a, 0x95, 0x3c,
  0xbf, 0x21, 0xd3, 0xbc, 0x68, 0x5c, 0x22, 0x3d, 0xab, 0xaa, 0xd2, 0xbd,
  0xcd, 0xef, 0x64, 0xbd, 0x12, 0x79, 0x26, 0xbc, 0x1f, 0x80, 0x94, 0xbc,
  0xbc, 0x48, 0xaf, 0x3d, 0x72, 0x50, 0x59, 0x3d, 0x65, 0xb8, 0xc5, 0x3d,
  0x8e, 0xca, 0x8c, 0xbd, 0xc4, 0x3c, 0xaa, 0xbc, 0xfd, 0x57, 0x2d, 0xbd,
  0x8f, 0xf0, 0xcb, 0xbd, 0xeb, 0x3e, 0xde, 0xbd, 0xd5, 0xf2, 0x0d, 0x3c,
  0xe0, 0xcd, 0xa6, 0x3c, 0x30, 0xf5, 0x31, 0x3d, 0x35, 0x5b, 0xc3, 0x3c,
  0x82, 0x09, 0x90, 0x3d, 0x1c, 0x52, 0x9a, 0x3d, 0x75, 0x5e, 0x59, 0xbd,
  0x1e, 0x45, 0x92, 0xbc, 0xc2, 0xc7, 0x23, 0x3c, 0x63, 0x55, 0xd6, 0xbd,
  0xd9, 0x20, 0xbf, 0x3d, 0x2e, 0xdc, 0x21, 0x3c, 0x48, 0x99, 0xb3, 0x3c,
  0x46, 0x84, 0x00, 0xbd, 0x4e, 0x0f, 0x9f, 0x3c, 0x7e, 0xd9, 0x8c, 0xbd,
  0x39, 0x17, 0x0c, 0x3d, 0x5b, 0x7e, 0x99, 0x3d, 0x61, 0x12, 0x59, 0xbb,
  0x4a, 0xe0, 0x99, 0xbd, 0x69, 0x46, 0x96, 0x3d, 0xf9, 0x8c, 0xb6, 0x3d,
  0xa2, 0x49, 0xdd, 0xbc, 0x72, 0xad, 0x98, 0xbd, 0x22, 0x8a, 0x14, 0xbd,
  0x57, 0x2b, 0x86, 0xbd, 0xfd, 0xed, 0xf9, 0x3c, 0xb7, 0x21, 0x61, 0x3d,
  0xd0, 0xa0, 0x94, 0xbd, 0x25, 0x8e, 0x9d, 0xbc, 0xa5, 0xfd, 0xb9, 0x3c,
  0x98, 0xa7, 0x78, 0x3c, 0xaf, 0x3e, 0xce, 0xbc, 0xf4, 0xed, 0x90, 0xbd,
  0xdd, 0xef, 0x80, 0xbd, 0x00, 0x10, 0xad, 0xbd, 0x0c, 0x47, 0xce, 0x3d,
  0x79, 0xdc, 0x90, 0x3d, 0x33, 0x81, 0xa2, 0xbd, 0x6c, 0x65, 0x3e, 0xbd,
  0x4c, 0x6a, 0x48, 0xbd, 0x6c, 0xcc, 0x22, 0xbd, 0x1a, 0x47, 0x02, 0xbd,
  0xec, 0x01, 0xad, 0x3c, 0xdc, 0xba, 0xc0, 0x3d, 0xba, 0x50, 0xc9, 0x3d,
  0x60, 0x3d, 0xc6, 0xbc, 0x17, 0xba, 0xa5, 0xbd, 0xa6, 0x31, 0x7e, 0xbd,
  0xd4, 0xf2, 0x66, 0xba, 0x20, 0xd8, 0x4f, 0xbc, 0x01, 0x39, 0xa4, 0x3d,
  0xdf, 0x06, 0x1f, 0x3c, 0xa0, 0xa0, 0xaf, 0x3d, 0x52, 0xa4, 0x6b, 0xbc,
  0x06, 0x40, 0xcc, 0xbd, 0xcc, 0x63, 0xcc, 0x3c, 0x59, 0x63, 0xbf, 0x3d,
  0xa3, 0xf6, 0x49, 0x3d, 0x6d, 0x1e, 0x06, 0x3d, 0x17, 0x55, 0x97, 0xbd,
  0xfa, 0x58, 0xbe, 0x3b, 0x06, 0x3a, 0xac, 0x3b, 0x3e, 0x8c, 0xce, 0x3d,
  0x1f, 0x02, 0x2d, 0x3d, 0xc8, 0x0e, 0x6c, 0xbd, 0xaa, 0x4c, 0xa8, 0xbd,
  0x83, 0x3f, 0x79, 0x3d, 0xa6, 0x5e, 0x37, 0x3d, 0xcc, 0xd4, 0x7a, 0xbd,
  0x5a, 0xc0, 0xa3, 0xbd, 0x8c, 0x21, 0xf7, 0xbc, 0x9a, 0x6a, 0x3d, 0xbc,
  0x43, 0x5c, 0x62, 0xbd, 0x78, 0xb6, 0x7f, 0x3d, 0x54, 0x3d, 0x42, 0x3c,
  0x90, 0xd7, 0x18, 0xbd, 0x08, 0x10, 0x92, 0x3d, 0xd7, 0xe5, 0x83, 0xbd,
  0x74, 0xba, 0x31, 0x3d, 0x6d, 0xf2, 0xd2, 0xbd, 0x79, 0xf3, 0x53, 0x3c,
  0xd8, 0x3a, 0x74, 0x3d, 0xab, 0x6b, 0x9a, 0x3c, 0x28, 0x1c, 0xbb, 0xbb,
  0x14, 0x84, 0xbf, 0xbc, 0xd0, 0xa9, 0xea, 0xbb, 0x9a, 0x69, 0x57, 0xbc,
  0x87, 0x8e, 0xb4, 0x3d, 0x35, 0xbf, 0x54, 0x3d, 0x71, 0x85, 0xc5, 0xbd,
